{
  "version": "1.0",
  "truncation": {
    "direction": "Right",
    "max_length": 512,
    "strategy": "LongestFirst",
    "stride": 0
  },
  "padding": null,
  "added_tokens": [
    {
      "id": 0,
      "content": "[PAD]",
      "single_word": false,
      "lstrip": false,
      "rstrip": false,
      "normalized": false,
      "special": true
    },
    {
      "id": 2,
      "content": "[UNK]",
      "single_word": false,
      "lstrip": false,
      "rstrip": false,
      "normalized": false,
      "special": true
    },
    {
      "id": 3,
      "content": "[CLS]",
      "single_word": false,
      "lstrip": false,
      "rstrip": false,
      "normalized": false,
      "special": true
    },
    {
      "id": 4,
      "content": "[SEP]",
      "single_word": false,
      "lstrip": false,
      "rstrip": false,
      "normalized": false,
      "special": true
    },
    {
      "id": 5,
      "content": "[MASK]",
      "single_word": false,
      "lstrip": false,
      "rstrip": false,
      "normalized": false,
      "special": true
    }
  ],
  "normalizer": {
    "type": "BertNormalizer",
    "clean_text": true,
    "handle_chinese_chars": true,
    "strip_accents": false,
    "lowercase": true
  },
  "pre_tokenizer": {
    "type": "BertPreTokenizer"
  },
  "post_processor": {
    "type": "TemplateProcessing",
    "single": [
      {
        "SpecialToken": {
          "id": "[CLS]",
          "type_id": 0
        }
      },
      {
        "Sequence": {
          "id": "A",
          "type_id": 0
        }
      },
      {
        "SpecialToken": {
          "id": "[SEP]",
          "type_id": 0
        }
      }
    ],
    "pair": [
      {
        "SpecialToken": {
          "id": "[CLS]",
          "type_id": 0
        }
      },
      {
        "Sequence": {
          "id": "A",
          "type_id": 0
        }
      },
      {
        "SpecialToken": {
          "id": "[SEP]",
          "type_id": 0
        }
      },
      {
        "Sequence": {
          "id": "B",
          "type_id": 1
        }
      },
      {
        "SpecialToken": {
          "id": "[SEP]",
          "type_id": 1
        }
      }
    ],
    "special_tokens": {
      "[CLS]": {
        "id": "[CLS]",
        "ids": [
          3
        ],
        "tokens": [
          "[CLS]"
        ]
      },
      "[SEP]": {
        "id": "[SEP]",
        "ids": [
          4
        ],
        "tokens": [
          "[SEP]"
        ]
      }
    }
  },
  "decoder": {
    "type": "WordPiece",
    "prefix": "##",
    "cleanup": true
  },
  "model": {
    "type": "WordPiece",
    "unk_token": "[UNK]",
    "continuing_subword_prefix": "##",
    "max_input_chars_per_word": 100,
    "vocab": {
      "[PAD]": 0,
      "[EOS]": 1,
      "[UNK]": 2,
      "[CLS]": 3,
      "[SEP]": 4,
      "[MASK]": 5,
      "de": 6,
      "în": 7,
      "a": 8,
      "##e": 9,
      "##,": 10,
      "la": 11,
      "și": 12,
      "cu": 13,
      "##i": 14,
      "##a": 15,
      "din": 16,
      "şi": 17,
      "să": 18,
      "care": 19,
      "pentru": 20,
      "pe": 21,
      "o": 22,
      "mai": 23,
      "nu": 24,
      "##ă": 25,
      "se": 26,
      "##l": 27,
      "un": 28,
      "este": 29,
      "că": 30,
      "##t": 31,
      "##ul": 32,
      "au": 33,
      "ce": 34,
      "ca": 35,
      "fost": 36,
      "al": 37,
      "##le": 38,
      "##te": 39,
      "sau": 40,
      "##at": 41,
      "sunt": 42,
      "fi": 43,
      "##ea": 44,
      "si": 45,
      "va": 46,
      "am": 47,
      "prin": 48,
      "##r": 49,
      "##ii": 50,
      "##e,": 51,
      "dar": 52,
      "in": 53,
      "##re": 54,
      "##ui": 55,
      "##ile": 56,
      "-": 57,
      "–": 58,
      "##rea": 59,
      "##tă": 60,
      "lui": 61,
      "##ia": 62,
      "##n": 63,
      "##s": 64,
      "##:": 65,
      "după": 66,
      "##lor": 67,
      "dacă": 68,
      "##m": 69,
      "e": 70,
      "##or": 71,
      "##ului": 72,
      "aceast": 73,
      "trebui": 74,
      "acest": 75,
      "iar": 76,
      "sa": 77,
      "##area": 78,
      "poate": 79,
      "##i,": 80,
      "cum": 81,
      "s-a": 82,
      "##d": 83,
      "ale": 84,
      "##lui": 85,
      "##ei": 86,
      "##a,": 87,
      "##u": 88,
      "când": 89,
      "##ie": 90,
      "##ate": 91,
      "##are": 92,
      "români": 93,
      "aceste": 94,
      "ar": 95,
      "##ne": 96,
      "vor": 97,
      "cele": 98,
      "cel": 99,
      "##tul": 100,
      "ne": 101,
      "##ri": 102,
      "despre": 103,
      "are": 104,
      "##ă,": 105,
      "dintre": 106,
      "le": 107,
      "##it": 108,
      "##ele": 109,
      "public": 110,
      "toate": 111,
      "##ilor": 112,
      "##)": 113,
      "foarte": 114,
      "fie": 115,
      "doar": 116,
      "unui": 117,
      "##c": 118,
      "până": 119,
      "prezen": 120,
      "mult": 121,
      "mare": 122,
      "cei": 123,
      "ai": 124,
      "##că": 125,
      "vă": 126,
      "multe": 127,
      "pot": 128,
      "face": 129,
      "fără": 130,
      "tot": 131,
      "##”": 132,
      "##ți": 133,
      "proiec": 134,
      "persoa": 135,
      "##al": 136,
      "unei": 137,
      "chiar": 138,
      "organi": 139,
      "##ată": 140,
      "##rie": 141,
      "##nă": 142,
      "##;": 143,
      "astfel": 144,
      "era": 145,
      "##t,": 146,
      "nici": 147,
      "el": 148,
      "##ta": 149,
      "către": 150,
      "##ce": 151,
      "##rii": 152,
      "două": 153,
      "timp": 154,
      "noi": 155,
      "cea": 156,
      "te": 157,
      "ani": 158,
      "cât": 159,
      "oameni": 160,
      "##lă": 161,
      "privin": 162,
      "atunci": 163,
      "ei": 164,
      "##tatea": 165,
      "mă": 166,
      "între": 167,
      "unde": 168,
      "##an": 169,
      "domnul": 170,
      "specia": 171,
      "avea": 172,
      "peste": 173,
      "reprez": 174,
      "##ţi": 175,
      "inform": 176,
      "fiind": 177,
      "ceea": 178,
      "europe": 179,
      "anul": 180,
      "îi": 181,
      "##erea": 182,
      "##tate": 183,
      "fiecar": 184,
      "##nd": 185,
      "##rul": 186,
      "perioa": 187,
      "##iei": 188,
      "alte": 189,
      "cadrul": 190,
      "decât": 191,
      "##o": 192,
      "servic": 193,
      "produs": 194,
      "comuni": 195,
      "putea": 196,
      "eu": 197,
      "import": 198,
      "loc": 199,
      "##ează": 200,
      "##ale": 201,
      "genera": 202,
      "bine": 203,
      "intern": 204,
      "activi": 205,
      "îl": 206,
      "unor": 207,
      "##”,": 208,
      "politi": 209,
      "##),": 210,
      "într-o": 211,
      "acum": 212,
      "avut": 213,
      "sub": 214,
      "într-u": 215,
      "contin": 216,
      "person": 217,
      "s-au": 218,
      "propri": 219,
      "##ră": 220,
      "sistem": 221,
      "##ere": 222,
      "moment": 223,
      "sex": 224,
      "##iile": 225,
      "realiz": 226,
      "declar": 227,
      "acesta": 228,
      "lor": 229,
      "##ca": 230,
      "spre": 231,
      "parte": 232,
      "atât": 233,
      "partic": 234,
      "precum": 235,
      "schimb": 236,
      "contra": 237,
      "progra": 238,
      "utiliz": 239,
      "guvern": 240,
      "dezvol": 241,
      "minist": 242,
      "făcut": 243,
      "unul": 244,
      "##elor": 245,
      "noastr": 246,
      "##l,": 247,
      "respec": 248,
      "începu": 249,
      "##da": 250,
      "##ent": 251,
      "folosi": 252,
      "##se": 253,
      "proble": 254,
      "##ice": 255,
      "asemen": 256,
      "##ază": 257,
      "consta": 258,
      "##ic": 259,
      "comple": 260,
      "întâln": 261,
      "##lul": 262,
      "direct": 263,
      "celor": 264,
      "orice": 265,
      "consil": 266,
      "vedere": 267,
      "asigur": 268,
      "##na": 269,
      "singur": 270,
      "trei": 271,
      "timpul": 272,
      "prima": 273,
      "numai": 274,
      "1": 275,
      "##ut": 276,
      "faptul": 277,
      "##rile": 278,
      "însă": 279,
      "confor": 280,
      "##ând": 281,
      "profes": 282,
      "##irea": 283,
      "dumnez": 284,
      "asupra": 285,
      "înaint": 286,
      "ci": 287,
      "##ra": 288,
      "există": 289,
      "primul": 290,
      "##ză": 291,
      "autori": 292,
      "ori": 293,
      ",": 294,
      "artico": 295,
      "##tarea": 296,
      "constr": 297,
      "potriv": 298,
      "asta": 299,
      "2": 300,
      "dreptu": 301,
      "princi": 302,
      "econom": 303,
      "bucure": 304,
      "instit": 305,
      "biseri": 306,
      "##\"": 307,
      "produc": 308,
      "data": 309,
      "##u,": 310,
      "##er": 311,
      "social": 312,
      "comisi": 313,
      "famili": 314,
      "##te,": 315,
      "intere": 316,
      "##de": 317,
      "##nt": 318,
      "mod": 319,
      "consid": 320,
      "aplica": 321,
      "trecut": 322,
      "##ire": 323,
      "admini": 324,
      "partea": 325,
      "încă": 326,
      "istori": 327,
      "##ții": 328,
      "spune": 329,
      "așa": 330,
      "##sc": 331,
      "ea": 332,
      "##ția": 333,
      "i": 334,
      "##tat": 335,
      "cazul": 336,
      "una": 337,
      "cultur": 338,
      "##orul": 339,
      "##iv": 340,
      "fac": 341,
      "3": 342,
      "##ală": 343,
      "stabil": 344,
      "##ea,": 345,
      "domeni": 346,
      "lucru": 347,
      "acestu": 348,
      "evenim": 349,
      "printr": 350,
      "##ni": 351,
      "deschi": 352,
      "națion": 353,
      "ani,": 354,
      "compan": 355,
      "rezult": 356,
      "zi": 357,
      "câteva": 358,
      "##r,": 359,
      "apoi": 360,
      "##ică": 361,
      "##atea": 362,
      "modifi": 363,
      "române": 364,
      "##tului": 365,
      "ceva": 366,
      "posibi": 367,
      "fel": 368,
      "##0": 369,
      "funcți": 370,
      "##uri": 371,
      "univer": 372,
      "ales": 373,
      "experi": 374,
      "conduc": 375,
      "##sul": 376,
      "obiect": 377,
      "proces": 378,
      "##oare": 379,
      "aproap": 380,
      "prea": 381,
      "##ării": 382,
      "##me": 383,
      "##nte": 384,
      "adevăr": 385,
      "își": 386,
      "răspun": 387,
      "##y": 388,
      "##ite": 389,
      "nevoie": 390,
      "##tare": 391,
      "imagin": 392,
      "dat": 393,
      "mari": 394,
      "spus": 395,
      "transp": 396,
      "parlam": 397,
      "materi": 398,
      "nou": 399,
      "naţion": 400,
      "urma": 401,
      "întreb": 402,
      "##ăm": 403,
      "##s,": 404,
      "##iu": 405,
      "doi": 406,
      "moldov": 407,
      "aici": 408,
      "##ări": 409,
      "##eu": 410,
      "îmi": 411,
      "##rilor": 412,
      "avem": 413,
      "următo": 414,
      "##la": 415,
      "societ": 416,
      "interv": 417,
      "##re,": 418,
      "##tea": 419,
      "necesa": 420,
      "##ar": 421,
      "propun": 422,
      "cunosc": 423,
      "invest": 424,
      "##ție": 425,
      "##nul": 426,
      "10": 427,
      "##ti": 428,
      "acesto": 429,
      "ora": 430,
      "centru": 431,
      "deveni": 432,
      "lucrur": 433,
      "##ei,": 434,
      "încerc": 435,
      "##iva": 436,
      "##le,": 437,
      "##ţia": 438,
      "##ze": 439,
      "5": 440,
      "întâmp": 441,
      "##ţii": 442,
      "milioa": 443,
      "##ui,": 444,
      "contro": 445,
      "locul": 446,
      "aşa": 447,
      "consti": 448,
      "cercet": 449,
      "raport": 450,
      "##g": 451,
      "echipa": 452,
      "decizi": 453,
      "cred": 454,
      "termen": 455,
      "partid": 456,
      "zile": 457,
      "an": 458,
      "astăzi": 459,
      "##iul": 460,
      "##ați": 461,
      "calita": 462,
      "transf": 463,
      "pregăt": 464,
      "vom": 465,
      "##eze": 466,
      "benefi": 467,
      "că,": 468,
      "i-a": 469,
      "##v": 470,
      "practi": 471,
      "președ": 472,
      "voi": 473,
      "##ie,": 474,
      "diferi": 475,
      "funcţi": 476,
      "##entul": 477,
      "##or,": 478,
      "exempl": 479,
      "toată": 480,
      "împotr": 481,
      "##…": 482,
      "4": 483,
      "stat": 484,
      "popula": 485,
      "bun": 486,
      "##ii,": 487,
      "##at,": 488,
      "asocia": 489,
      "caract": 490,
      "povest": 491,
      "##iului": 492,
      "erau": 493,
      "valoar": 494,
      "docume": 495,
      "îşi": 496,
      "solici": 497,
      "ajuns": 498,
      "##dă": 499,
      "medica": 500,
      "privir": 501,
      "##esc": 502,
      "priete": 503,
      "efectu": 504,
      "porno": 505,
      "obliga": 506,
      "##intele": 507,
      "##tă,": 508,
      "săptăm": 509,
      "deja": 510,
      "afacer": 511,
      "primit": 512,
      ".": 513,
      "nivelu": 514,
      "angaja": 515,
      "##tele": 516,
      "numele": 517,
      "dispoz": 518,
      "##ci": 519,
      "##ori": 520,
      "##ța": 521,
      "consum": 522,
      "##\",": 523,
      "ele": 524,
      "oficia": 525,
      "împreu": 526,
      "drept": 527,
      "##ri,": 528,
      "înregi": 529,
      "##ului,": 530,
      "actual": 531,
      "ziua": 532,
      "##ită": 533,
      "lumea": 534,
      "##ști": 535,
      "implic": 536,
      "proced": 537,
      "concur": 538,
      "##ant": 539,
      "##-o": 540,
      "altă": 541,
      "dată": 542,
      "electr": 543,
      "online": 544,
      "##erul": 545,
      "baza": 546,
      "/": 547,
      "nostru": 548,
      "##ente": 549,
      "descop": 550,
      "the": 551,
      "număru": 552,
      "doua": 553,
      "ajutor": 554,
      "natura": 555,
      "puțin": 556,
      "munici": 557,
      "##tor": 558,
      "lângă": 559,
      "său": 560,
      "##n,": 561,
      "##ţa": 562,
      "##orii": 563,
      "lei": 564,
      "compet": 565,
      "inclus": 566,
      "sale": 567,
      "cine": 568,
      "anumit": 569,
      "pare": 570,
      "zona": 571,
      "parten": 572,
      "nivel": 573,
      "alătur": 574,
      "—": 575,
      "##nii": 576,
      "datori": 577,
      "bună": 578,
      "de-a": 579,
      "##lor,": 580,
      "l-a": 581,
      "având": 582,
      "##iilor": 583,
      "##z": 584,
      "##are,": 585,
      "suflet": 586,
      "facă": 587,
      "##ura": 588,
      "față": 589,
      "relați": 590,
      "susțin": 591,
      "tehnic": 592,
      "##ute": 593,
      "primar": 594,
      "unele": 595,
      "află": 596,
      "##ia,": 597,
      "statul": 598,
      "##urile": 599,
      "##să": 600,
      "înțele": 601,
      "##ment": 602,
      "preciz": 603,
      "să-i": 604,
      "##ma": 605,
      "mea": 606,
      "deputa": 607,
      "recuno": 608,
      "putem": 609,
      "identi": 610,
      "lucrăr": 611,
      "suntem": 612,
      "##ţie": 613,
      "##5": 614,
      "cauza": 615,
      "20": 616,
      "alimen": 617,
      "transm": 618,
      "referi": 619,
      "americ": 620,
      "recoma": 621,
      "deoare": 622,
      "##c,": 623,
      "30": 624,
      "##ații": 625,
      "##ască": 626,
      "preşed": 627,
      "##ica": 628,
      "republ": 629,
      "6": 630,
      "locali": 631,
      "studii": 632,
      "##nța": 633,
      "##ria": 634,
      "##şti": 635,
      "copii": 636,
      "luat": 637,
      "##il": 638,
      "luni": 639,
      "protec": 640,
      "##ne,": 641,
      "hotărâ": 642,
      "apropi": 643,
      "##nea": 644,
      "începe": 645,
      "aproba": 646,
      "care,": 647,
      "##ță": 648,
      "acolo": 649,
      "noiemb": 650,
      "spriji": 651,
      "patru": 652,
      "aleger": 653,
      "ridica": 654,
      "##mul": 655,
      "venit": 656,
      "german": 657,
      "##aţi": 658,
      "decemb": 659,
      "##nță": 660,
      "locuri": 661,
      "tineri": 662,
      "totul": 663,
      "înseam": 664,
      "permit": 665,
      "legea": 666,
      "anului": 667,
      "site-u": 668,
      "explic": 669,
      "vorba": 670,
      "condiț": 671,
      "crește": 672,
      "##.": 673,
      "##ul,": 674,
      "##tiv": 675,
      "telefo": 676,
      "să-l": 677,
      "promov": 678,
      "energi": 679,
      "spun": 680,
      "financ": 681,
      "credin": 682,
      "##iri": 683,
      "alt": 684,
      "oferă": 685,
      "salari": 686,
      "##că,": 687,
      "##carea": 688,
      "încât": 689,
      "##eri": 690,
      "15": 691,
      "situaț": 692,
      "închei": 693,
      "##4": 694,
      "##ană": 695,
      "##intă": 696,
      "##2": 697,
      "##1": 698,
      "##...": 699,
      "colegi": 700,
      "execut": 701,
      "octomb": 702,
      "ajunge": 703,
      "integr": 704,
      "putere": 705,
      "arată": 706,
      "##za": 707,
      "##ște": 708,
      "gratui": 709,
      "om": 710,
      "cuprin": 711,
      "tuturo": 712,
      "nouă": 713,
      "catego": 714,
      "faţă": 715,
      "analiz": 716,
      "tip": 717,
      "membri": 718,
      "##on": 719,
      "##cii": 720,
      "daca": 721,
      "meu": 722,
      "##nţa": 723,
      "##rie,": 724,
      "contri": 725,
      "depart": 726,
      "##toare": 727,
      "septem": 728,
      "legătu": 729,
      "##scă": 730,
      "##alul": 731,
      "mine": 732,
      "putern": 733,
      "ia": 734,
      "##ga": 735,
      "legisl": 736,
      "îți": 737,
      "și,": 738,
      "##3": 739,
      "majori": 740,
      "##une": 741,
      "##ru": 742,
      "##nele": 743,
      "dintr-": 744,
      "preved": 745,
      "bune": 746,
      "observ": 747,
      "##ate,": 748,
      "instru": 749,
      "punct": 750,
      "pus": 751,
      "vrea": 752,
      "regula": 753,
      "sigura": 754,
      "m-am": 755,
      "vine": 756,
      "aceea": 757,
      "interi": 758,
      "centra": 759,
      "da": 760,
      "viitor": 761,
      "capita": 762,
      "acorda": 763,
      "câte": 764,
      "spital": 765,
      "2018": 766,
      "petrec": 767,
      "nimic": 768,
      "existe": 769,
      "spirit": 770,
      "jocuri": 771,
      "destin": 772,
      "##k": 773,
      "##6": 774,
      "##eră": 775,
      "mi-a": 776,
      "##și": 777,
      "specif": 778,
      "aspect": 779,
      "tu": 780,
      "##ţă": 781,
      "cuvânt": 782,
      "##zat": 783,
      "adresa": 784,
      "##zarea": 785,
      "##x": 786,
      "înţele": 787,
      "pune": 788,
      "succes": 789,
      "martie": 790,
      "victor": 791,
      "##mentul": 792,
      "##ase": 793,
      "deoseb": 794,
      "vei": 795,
      "eviden": 796,
      "divers": 797,
      "##şte": 798,
      "puţin": 799,
      "întrea": 800,
      "##is": 801,
      "august": 802,
      "##7": 803,
      "##in": 804,
      "cumpăr": 805,
      "secret": 806,
      "7": 807,
      "probab": 808,
      "bani": 809,
      "comerc": 810,
      "##8": 811,
      "casa": 812,
      "măsuri": 813,
      "##itate": 814,
      "##cat": 815,
      "valori": 816,
      "##p": 817,
      "dumnea": 818,
      "urmă": 819,
      "destul": 820,
      "muncă": 821,
      "reduce": 822,
      "##erii": 823,
      "##au": 824,
      "euro": 825,
      "folose": 826,
      "extrem": 827,
      "##lui,": 828,
      "susţin": 829,
      "milita": 830,
      "copiii": 831,
      "condiţ": 832,
      "##rului": 833,
      "viața": 834,
      "...": 835,
      "12": 836,
      "##ge": 837,
      "##oară": 838,
      "elemen": 839,
      "luna": 840,
      "specta": 841,
      "fotogr": 842,
      "întreg": 843,
      "##ațional": 844,
      "statel": 845,
      "acoper": 846,
      "noi,": 847,
      "rămâne": 848,
      "##nat": 849,
      "litera": 850,
      "8": 851,
      "indust": 852,
      "apă": 853,
      "lume": 854,
      "##zi": 855,
      "struct": 856,
      "##şi": 857,
      "primăr": 858,
      "video": 859,
      "urmare": 860,
      "##ește": 861,
      "##atul": 862,
      "mulți": 863,
      "copilu": 864,
      "introd": 865,
      "##ve": 866,
      "înscri": 867,
      ":": 868,
      "frumoa": 869,
      "mediul": 870,
      "ianuar": 871,
      "##mă": 872,
      "sfântu": 873,
      "confer": 874,
      "europa": 875,
      "cuvint": 876,
      "lege": 877,
      "consul": 878,
      "accept": 879,
      "mi": 880,
      "mondia": 881,
      "furniz": 882,
      "acțiun": 883,
      "prevăz": 884,
      "unii": 885,
      "origin": 886,
      "simplu": 887,
      "modern": 888,
      "văzut": 889,
      "limba": 890,
      "sănăta": 891,
      "greu": 892,
      "##ență": 893,
      "scris": 894,
      "##ive": 895,
      "respon": 896,
      "##he": 897,
      "##nţă": 898,
      "detali": 899,
      "romani": 900,
      "##ata": 901,
      "ioan": 902,
      "calcul": 903,
      "terito": 904,
      "mici": 905,
      "desfăș": 906,
      "(": 907,
      "of": 908,
      "##entului": 909,
      "situaţ": 910,
      "ei,": 911,
      "camere": 912,
      "manage": 913,
      "aproxi": 914,
      "format": 915,
      "##sa": 916,
      "război": 917,
      "perfec": 918,
      "exista": 919,
      "toți": 920,
      "##care": 921,
      "poliţi": 922,
      "medici": 923,
      "prezin": 924,
      "ultima": 925,
      "primel": 926,
      "festiv": 927,
      "tehnol": 928,
      "##brie": 929,
      "##mativ": 930,
      "achizi": 931,
      "##mente": 932,
      "poți": 933,
      "formul": 934,
      "supraf": 935,
      "aprili": 936,
      "##lă,": 937,
      "securi": 938,
      "##st": 939,
      "exerci": 940,
      "câștig": 941,
      "##us": 942,
      "părint": 943,
      "##ției": 944,
      "locale": 945,
      "eficie": 946,
      "mijloc": 947,
      "pierde": 948,
      "parcur": 949,
      "##ație": 950,
      "procur": 951,
      "iunie": 952,
      "străin": 953,
      "jurul": 954,
      "deci": 955,
      "pământ": 956,
      "niciod": 957,
      "fața": 958,
      "##9": 959,
      "sărbăt": 960,
      "adică": 961,
      "##tăți": 962,
      "bărbat": 963,
      "cineva": 964,
      "studen": 965,
      "iniția": 966,
      "și-a": 967,
      "cinci": 968,
      "##h": 969,
      "s-ar": 970,
      "aduce": 971,
      "modul": 972,
      "tratam": 973,
      "poliți": 974,
      "închis": 975,
      "grupul": 976,
      "25": 977,
      "manife": 978,
      "termin": 979,
      "concep": 980,
      "##j": 981,
      "cam": 982,
      "##al,": 983,
      "altfel": 984,
      "ore": 985,
      "alexan": 986,
      "noapte": 987,
      "situat": 988,
      "##ură": 989,
      "##litatea": 990,
      "începâ": 991,
      "date": 992,
      "minute": 993,
      "premie": 994,
      "determ": 995,
      "invita": 996,
      "##aţii": 997,
      "judecă": 998,
      "acelaș": 999,
      "marea": 1000,
      "adopta": 1001,
      "fapt": 1002,
      "lor,": 1003,
      "•": 1004,
      "subiec": 1005,
      "##-": 1006,
      "##bil": 1007,
      "deși": 1008,
      "corect": 1009,
      "##inte": 1010,
      "sector": 1011,
      "accide": 1012,
      "##itatea": 1013,
      "conțin": 1014,
      "##m,": 1015,
      "##ing": 1016,
      "campan": 1017,
      "oferit": 1018,
      "dupa": 1019,
      "##voastră": 1020,
      "compar": 1021,
      "aștept": 1022,
      "vizita": 1023,
      "##ante": 1024,
      "##-ul": 1025,
      "viaţa": 1026,
      "##os": 1027,
      "scopul": 1028,
      "dispon": 1029,
      "creşte": 1030,
      "nicola": 1031,
      "##un": 1032,
      "timp,": 1033,
      "prefer": 1034,
      "exprim": 1035,
      "sexual": 1036,
      "##ările": 1037,
      "interm": 1038,
      "aflat": 1039,
      "defini": 1040,
      "verifi": 1041,
      "vedea": 1042,
      "colabo": 1043,
      "##tățile": 1044,
      "asiste": 1045,
      "echipe": 1046,
      "monito": 1047,
      "cheltu": 1048,
      "##arele": 1049,
      "jumăta": 1050,
      "ortodo": 1051,
      "nimeni": 1052,
      "le-a": 1053,
      "călăto": 1054,
      "iulie": 1055,
      "urmeaz": 1056,
      "24": 1057,
      "surpri": 1058,
      "##orilor": 1059,
      "aibă": 1060,
      "##tății": 1061,
      "regiun": 1062,
      "puncte": 1063,
      "legii": 1064,
      "##an,": 1065,
      "instal": 1066,
      "##%": 1067,
      "dau": 1068,
      "contac": 1069,
      "##ara": 1070,
      "candid": 1071,
      "strate": 1072,
      "indivi": 1073,
      "omul": 1074,
      "##ilor,": 1075,
      "şi,": 1076,
      "punctu": 1077,
      "femei": 1078,
      "circul": 1079,
      "imedia": 1080,
      "mihai": 1081,
      "mii": 1082,
      "##ntă": 1083,
      "gheorg": 1084,
      "##am": 1085,
      "ferici": 1086,
      "magazi": 1087,
      "februa": 1088,
      "##ută": 1089,
      "convin": 1090,
      "dă": 1091,
      "campio": 1092,
      "##ale,": 1093,
      "realit": 1094,
      "acţiun": 1095,
      "##ã": 1096,
      "##ng": 1097,
      "colect": 1098,
      "putut": 1099,
      "superi": 1100,
      "urmări": 1101,
      "rezerv": 1102,
      "18": 1103,
      "toţi": 1104,
      "capaci": 1105,
      "##“,": 1106,
      "interp": 1107,
      "număr": 1108,
      "juridi": 1109,
      "desfăş": 1110,
      "tocmai": 1111,
      "fiscal": 1112,
      "9": 1113,
      "multă": 1114,
      "rămas": 1115,
      "##telor": 1116,
      "##et": 1117,
      "română": 1118,
      "14": 1119,
      "soluți": 1120,
      "…": 1121,
      "faci": 1122,
      "ta": 1123,
      "apreci": 1124,
      "11": 1125,
      "instan": 1126,
      "teatru": 1127,
      "credit": 1128,
      "##ația": 1129,
      "dumini": 1130,
      "ordona": 1131,
      "mulţi": 1132,
      "##ce,": 1133,
      "doilea": 1134,
      "##“": 1135,
      "suport": 1136,
      "mare,": 1137,
      "mereu": 1138,
      "şi-a": 1139,
      "bugetu": 1140,
      "încred": 1141,
      "influe": 1142,
      "duce": 1143,
      "antren": 1144,
      "ultimu": 1145,
      "100": 1146,
      "formă": 1147,
      "aminti": 1148,
      "descri": 1149,
      "discut": 1150,
      "religi": 1151,
      "comand": 1152,
      "cand": 1153,
      "județu": 1154,
      "(1)": 1155,
      "provoc": 1156,
      "faţa": 1157,
      "##ice,": 1158,
      "##mele": 1159,
      "##ști,": 1160,
      "artist": 1161,
      "cazuri": 1162,
      "fondur": 1163,
      "dimine": 1164,
      "##uă": 1165,
      "ne-a": 1166,
      "jos": 1167,
      "##entare": 1168,
      "##erile": 1169,
      "caz": 1170,
      "##ic,": 1171,
      "mic": 1172,
      "mulțum": 1173,
      "##ţiei": 1174,
      "sediul": 1175,
      "##em": 1176,
      "venitu": 1177,
      "educaț": 1178,
      "##es": 1179,
      "scrie": 1180,
      "ulteri": 1181,
      "##ct": 1182,
      "ion": 1183,
      "drumul": 1184,
      "recent": 1185,
      "evalua": 1186,
      "serie": 1187,
      "îmbună": 1188,
      "inspec": 1189,
      "județe": 1190,
      "16": 1191,
      "dragos": 1192,
      "trimit": 1193,
      "fostul": 1194,
      "vin": 1195,
      "anii": 1196,
      "##aţional": 1197,
      "normal": 1198,
      "moarte": 1199,
      "facem": 1200,
      "puteți": 1201,
      "vreo": 1202,
      "bază": 1203,
      "##iei,": 1204,
      "ne-am": 1205,
      "privat": 1206,
      "##rare": 1207,
      "studiu": 1208,
      "să-și": 1209,
      "frumos": 1210,
      "judeţe": 1211,
      "##/": 1212,
      "odată": 1213,
      "copiil": 1214,
      "##li": 1215,
      "animal": 1216,
      "critic": 1217,
      "afla": 1218,
      "elimin": 1219,
      "obicei": 1220,
      "l-am": 1221,
      "niciun": 1222,
      "indica": 1223,
      "##nelor": 1224,
      "orașul": 1225,
      "căci": 1226,
      "dedica": 1227,
      "carte": 1228,
      "îngrij": 1229,
      "acord": 1230,
      "perfor": 1231,
      "cunoaș": 1232,
      "măcar": 1233,
      "acea": 1234,
      "jurnal": 1235,
      "50": 1236,
      "noul": 1237,
      "culoar": 1238,
      "propus": 1239,
      "ii": 1240,
      "pierdu": 1241,
      "stare": 1242,
      "##torul": 1243,
      "acum,": 1244,
      "includ": 1245,
      "hristo": 1246,
      "coment": 1247,
      "##eni": 1248,
      "»": 1249,
      "vreau": 1250,
      "##rarea": 1251,
      "vreme": 1252,
      "știu": 1253,
      "sus": 1254,
      "membru": 1255,
      "##ară": 1256,
      "fotbal": 1257,
      "2017": 1258,
      "libert": 1259,
      "finanț": 1260,
      "intrat": 1261,
      "##ească": 1262,
      "ajuta": 1263,
      "doresc": 1264,
      "preven": 1265,
      "m-a": 1266,
      "condus": 1267,
      "##b": 1268,
      "forma": 1269,
      "##erului": 1270,
      "##torii": 1271,
      "##zare": 1272,
      "lansat": 1273,
      "##utul": 1274,
      "protej": 1275,
      "resurs": 1276,
      "c": 1277,
      "##ator": 1278,
      "operat": 1279,
      "eliber": 1280,
      "ascult": 1281,
      "impres": 1282,
      "##f": 1283,
      "##ine": 1284,
      "film": 1285,
      "difere": 1286,
      "suplim": 1287,
      "13": 1288,
      "##tăţii": 1289,
      "distri": 1290,
      "##arul": 1291,
      "##lului": 1292,
      "apărut": 1293,
      "bucuri": 1294,
      "pacien": 1295,
      "##im": 1296,
      "mama": 1297,
      "necesi": 1298,
      "ma": 1299,
      "îndepl": 1300,
      "măsură": 1301,
      "motive": 1302,
      "indife": 1303,
      "trimis": 1304,
      "##irii": 1305,
      "tine": 1306,
      "##lat": 1307,
      "clădir": 1308,
      "coresp": 1309,
      "jucăto": 1310,
      "facult": 1311,
      "vineri": 1312,
      "sporti": 1313,
      "zilele": 1314,
      "an,": 1315,
      "vezi": 1316,
      "##nta": 1317,
      "numero": 1318,
      "dezbat": 1319,
      "acești": 1320,
      "plus": 1321,
      "fata": 1322,
      "televi": 1323,
      "învăță": 1324,
      "acel": 1325,
      "##ți,": 1326,
      "seama": 1327,
      "##şti,": 1328,
      "judeca": 1329,
      "atenți": 1330,
      "bine,": 1331,
      "rezolv": 1332,
      "##ala": 1333,
      "înfiin": 1334,
      "cristi": 1335,
      "aparat": 1336,
      "cetățe": 1337,
      "semnat": 1338,
      "suferi": 1339,
      "dea": 1340,
      "joc": 1341,
      "democr": 1342,
      "##rat": 1343,
      "cerere": 1344,
      "niște": 1345,
      "mult,": 1346,
      "tinere": 1347,
      "adus": 1348,
      "muzica": 1349,
      "n": 1350,
      "aminte": 1351,
      "locuit": 1352,
      "##piului": 1353,
      "român": 1354,
      "noua": 1355,
      "femeil": 1356,
      "femeie": 1357,
      "##ată,": 1358,
      "##ste": 1359,
      "miliar": 1360,
      "dus": 1361,
      "vârstă": 1362,
      "##rent": 1363,
      "revist": 1364,
      "plan": 1365,
      "lei,": 1366,
      "##cu": 1367,
      "##uit": 1368,
      "rezist": 1369,
      "crescu": 1370,
      "afirma": 1371,
      "fii": 1372,
      "azi": 1373,
      "suprav": 1374,
      "felul": 1375,
      "##eşte": 1376,
      "place": 1377,
      "lui,": 1378,
      "22": 1379,
      "comune": 1380,
      "##ntul": 1381,
      "viață": 1382,
      "ordine": 1383,
      "nu-i": 1384,
      "##ător": 1385,
      "##scu": 1386,
      "dimens": 1387,
      "uneori": 1388,
      "##ediul": 1389,
      "##nilor": 1390,
      "vasile": 1391,
      "fete": 1392,
      "##aţie": 1393,
      "corpul": 1394,
      "uniuni": 1395,
      "france": 1396,
      "##alului": 1397,
      "secolu": 1398,
      "il": 1399,
      "17": 1400,
      "însă,": 1401,
      "extern": 1402,
      "deşi": 1403,
      "mediu": 1404,
      "vremea": 1405,
      "filme": 1406,
      "ultime": 1407,
      "##ni,": 1408,
      "poziți": 1409,
      "găsit": 1410,
      "23": 1411,
      "miercu": 1412,
      "perman": 1413,
      "sfârși": 1414,
      "##tăţi": 1415,
      "britan": 1416,
      "voturi": 1417,
      "##ua": 1418,
      "local": 1419,
      "##tăţile": 1420,
      "acelaş": 1421,
      "##vă": 1422,
      "##va": 1423,
      "##oare,": 1424,
      "demons": 1425,
      "născut": 1426,
      "19": 1427,
      "infrac": 1428,
      "efecte": 1429,
      "x": 1430,
      "##ort": 1431,
      "fabric": 1432,
      "luni,": 1433,
      "contex": 1434,
      "design": 1435,
      "##bile": 1436,
      "exact": 1437,
      "celebr": 1438,
      "curtea": 1439,
      "științ": 1440,
      "imobil": 1441,
      "lipsa": 1442,
      "văd": 1443,
      "legate": 1444,
      "##dru": 1445,
      "##rele": 1446,
      "##atele": 1447,
      "premiu": 1448,
      "varian": 1449,
      "sâmbăt": 1450,
      "câştig": 1451,
      "##icii": 1452,
      "##orului": 1453,
      "implem": 1454,
      "##pal": 1455,
      "datele": 1456,
      "consec": 1457,
      "reveni": 1458,
      "21": 1459,
      "27": 1460,
      "##ina": 1461,
      "sufici": 1462,
      "standa": 1463,
      "grup": 1464,
      "psd": 1465,
      "parte,": 1466,
      "28": 1467,
      "academ": 1468,
      "cartea": 1469,
      "relaţi": 1470,
      "reglem": 1471,
      "ultimi": 1472,
      "doamne": 1473,
      "##tării": 1474,
      "##tori": 1475,
      "mănăst": 1476,
      "dar,": 1477,
      "anteri": 1478,
      "cursul": 1479,
      "ușor": 1480,
      "indepe": 1481,
      "reușit": 1482,
      "vechi": 1483,
      "totoda": 1484,
      "##ionale": 1485,
      "profit": 1486,
      "##e:": 1487,
      "cantit": 1488,
      "atribu": 1489,
      "cat": 1490,
      "##tate,": 1491,
      "strada": 1492,
      "intens": 1493,
      "l": 1494,
      "rândul": 1495,
      "adăuga": 1496,
      "învăţă": 1497,
      "el,": 1498,
      "total": 1499,
      "##eu,": 1500,
      "priveș": 1501,
      "intrar": 1502,
      "întoar": 1503,
      "târziu": 1504,
      "##ății": 1505,
      "confir": 1506,
      "judeţu": 1507,
      "##uare": 1508,
      "distru": 1509,
      "##uni": 1510,
      "anunțu": 1511,
      "omului": 1512,
      "aveți": 1513,
      "##mitate": 1514,
      "prelua": 1515,
      "scriit": 1516,
      "##piul": 1517,
      "celui": 1518,
      "devine": 1519,
      "lua": 1520,
      "nicio": 1521,
      "(în": 1522,
      "##urilor": 1523,
      "##d,": 1524,
      "limita": 1525,
      "ochii": 1526,
      "apa": 1527,
      "să-şi": 1528,
      "##ici": 1529,
      "##țe": 1530,
      "lista": 1531,
      "##aţia": 1532,
      "26": 1533,
      "sarcin": 1534,
      "combin": 1535,
      "filmul": 1536,
      "(2)": 1537,
      "totuși": 1538,
      "abia": 1539,
      "acordu": 1540,
      "italia": 1541,
      "uniune": 1542,
      "semnif": 1543,
      "terenu": 1544,
      "merge": 1545,
      "##ari": 1546,
      "întrep": 1547,
      "ideea": 1548,
      "acasă": 1549,
      "2016": 1550,
      "banii": 1551,
      "substa": 1552,
      "##00": 1553,
      "aştept": 1554,
      "##erilor": 1555,
      "presup": 1556,
      "dr.": 1557,
      "agenți": 1558,
      "îţi": 1559,
      "coordo": 1560,
      "ue": 1561,
      "expozi": 1562,
      "##ntin": 1563,
      "##antă": 1564,
      "cont": 1565,
      "spațiu": 1566,
      "ești": 1567,
      "mi-am": 1568,
      "temper": 1569,
      "picioa": 1570,
      "li": 1571,
      "califi": 1572,
      "##eauna": 1573,
      "compon": 1574,
      "##ian": 1575,
      "##ipat": 1576,
      "lucrar": 1577,
      "rolul": 1578,
      "finali": 1579,
      "40": 1580,
      "chesti": 1581,
      "trece": 1582,
      "dan": 1583,
      "apare": 1584,
      "datelo": 1585,
      "s": 1586,
      "întotd": 1587,
      "pur": 1588,
      "and": 1589,
      "trafic": 1590,
      "condam": 1591,
      "##ât": 1592,
      "vrei": 1593,
      "restau": 1594,
      "denumi": 1595,
      "##era": 1596,
      "adrian": 1597,
      "compor": 1598,
      "doctor": 1599,
      "piața": 1600,
      "afara": 1601,
      "31": 1602,
      "m": 1603,
      "mărtur": 1604,
      "!": 1605,
      "sala": 1606,
      "locuin": 1607,
      "păcate": 1608,
      "tradiț": 1609,
      "afecta": 1610,
      "camera": 1611,
      "mențio": 1612,
      "părinț": 1613,
      "respin": 1614,
      "biblio": 1615,
      "##ică,": 1616,
      "mică": 1617,
      "asa": 1618,
      "iată": 1619,
      "iniţia": 1620,
      "copil": 1621,
      "##..": 1622,
      "da,": 1623,
      "decis": 1624,
      "##iuni": 1625,
      "##ez": 1626,
      "păstra": 1627,
      "##o,": 1628,
      "rutier": 1629,
      "ajută": 1630,
      "comuna": 1631,
      "dreapt": 1632,
      "oraşul": 1633,
      "##sitatea": 1634,
      "andrei": 1635,
      "găsi": 1636,
      "eram": 1637,
      "orient": 1638,
      "##ional": 1639,
      "obține": 1640,
      "permis": 1641,
      "țară": 1642,
      "iași": 1643,
      "##lte": 1644,
      "fondul": 1645,
      "întruc": 1646,
      "##ţi,": 1647,
      "amenda": 1648,
      "oferi": 1649,
      "exclus": 1650,
      "scurt": 1651,
      "iubire": 1652,
      "29": 1653,
      "le-am": 1654,
      "zi,": 1655,
      "grădin": 1656,
      "lumina": 1657,
      "plus,": 1658,
      "împlin": 1659,
      "ocazia": 1660,
      "nume": 1661,
      "distan": 1662,
      "conţin": 1663,
      "ştiinţ": 1664,
      "##ților": 1665,
      "cere": 1666,
      "##el": 1667,
      "să-mi": 1668,
      "##nă,": 1669,
      "##ane": 1670,
      "##tată": 1671,
      "aici,": 1672,
      "##iunea": 1673,
      "numit": 1674,
      "final": 1675,
      "factor": 1676,
      "concer": 1677,
      "doamna": 1678,
      "2018,": 1679,
      "depune": 1680,
      "aș": 1681,
      "##zează": 1682,
      "păsări": 1683,
      "impozi": 1684,
      "protes": 1685,
      "##ss": 1686,
      "mecani": 1687,
      "##it,": 1688,
      "titlul": 1689,
      "mele": 1690,
      "negru": 1691,
      "soluţi": 1692,
      "##entă": 1693,
      "frecve": 1694,
      "plecat": 1695,
      "tău": 1696,
      "calea": 1697,
      "celela": 1698,
      "poziti": 1699,
      "concen": 1700,
      "viaţă": 1701,
      "simbol": 1702,
      "bunuri": 1703,
      "casă": 1704,
      "##urat": 1705,
      "aceşti": 1706,
      "##zate": 1707,
      "r": 1708,
      "aceeaș": 1709,
      "lungul": 1710,
      "##izare": 1711,
      "##iune": 1712,
      "n-a": 1713,
      "altor": 1714,
      "suceav": 1715,
      "##arii": 1716,
      "l-au": 1717,
      "direcț": 1718,
      "poporu": 1719,
      "motiv": 1720,
      "n-am": 1721,
      "anume": 1722,
      "altele": 1723,
      "vorbit": 1724,
      "misiun": 1725,
      "bătrân": 1726,
      "##en": 1727,
      "muzeul": 1728,
      "sentim": 1729,
      "înlocu": 1730,
      "episco": 1731,
      "##ivă": 1732,
      "##mului": 1733,
      "##sm": 1734,
      "zilei": 1735,
      "spunea": 1736,
      "anunţa": 1737,
      "##țiile": 1738,
      "plăcut": 1739,
      "finanţ": 1740,
      "##litate": 1741,
      "cap": 1742,
      "pagina": 1743,
      "acces": 1744,
      "ştiu": 1745,
      "zis": 1746,
      "memori": 1747,
      "modele": 1748,
      "expres": 1749,
      "anunța": 1750,
      "ameste": 1751,
      "pun": 1752,
      "##ală,": 1753,
      "conclu": 1754,
      "fiindc": 1755,
      "to": 1756,
      "aparta": 1757,
      "educaţ": 1758,
      "aer": 1759,
      "##]": 1760,
      "fierbi": 1761,
      "sigur": 1762,
      "electo": 1763,
      "##entele": 1764,
      "unitat": 1765,
      "teren": 1766,
      "##ţe": 1767,
      "absolu": 1768,
      "certif": 1769,
      "i-au": 1770,
      "videoc": 1771,
      "inspir": 1772,
      "##iare": 1773,
      "fapt,": 1774,
      "##ș": 1775,
      "starea": 1776,
      "##unea": 1777,
      "##ile,": 1778,
      "curent": 1779,
      "##sti": 1780,
      "select": 1781,
      "fiecăr": 1782,
      "nr.": 1783,
      "sa,": 1784,
      "fiul": 1785,
      "##tăților": 1786,
      "ședinț": 1787,
      "site": 1788,
      "său,": 1789,
      "intele": 1790,
      "elabor": 1791,
      "pana": 1792,
      "clar": 1793,
      "##gerea": 1794,
      "membre": 1795,
      "cale": 1796,
      "adoles": 1797,
      "deplas": 1798,
      "nişte": 1799,
      "daniel": 1800,
      "sublin": 1801,
      "remarc": 1802,
      "george": 1803,
      "##.ro": 1804,
      ")": 1805,
      "##escu": 1806,
      "zilnic": 1807,
      "tratat": 1808,
      "drum": 1809,
      "ați": 1810,
      "(de": 1811,
      "trecer": 1812,
      "cetăţe": 1813,
      "libera": 1814,
      "facebo": 1815,
      "##tive": 1816,
      "2015": 1817,
      "mircea": 1818,
      "##tivă": 1819,
      "depozi": 1820,
      "##strat": 1821,
      "bucura": 1822,
      "##ial": 1823,
      "avanta": 1824,
      "##ş": 1825,
      "victim": 1826,
      "##ină": 1827,
      "efortu": 1828,
      "arătat": 1829,
      "##ăţii": 1830,
      "&": 1831,
      "tare": 1832,
      "intre": 1833,
      "##ctul": 1834,
      "textul": 1835,
      "##sului": 1836,
      "model": 1837,
      "primi": 1838,
      "sfârşi": 1839,
      "cerut": 1840,
      "##erat": 1841,
      "##iu,": 1842,
      "vârsta": 1843,
      "secund": 1844,
      "##enta": 1845,
      "sine": 1846,
      "pas": 1847,
      "##erit": 1848,
      "i-am": 1849,
      "maria": 1850,
      "buna": 1851,
      "zile,": 1852,
      "##cul": 1853,
      "suma": 1854,
      "creat": 1855,
      "client": 1856,
      "rog": 1857,
      "repede": 1858,
      "garant": 1859,
      "mobili": 1860,
      "codul": 1861,
      "region": 1862,
      "##gă": 1863,
      "agricu": 1864,
      "cer": 1865,
      "##ațiile": 1866,
      "inima": 1867,
      "gay": 1868,
      "des": 1869,
      "##ența": 1870,
      "părinţ": 1871,
      "mandat": 1872,
      "absolv": 1873,
      "?": 1874,
      "reclam": 1875,
      "##nu": 1876,
      "semnal": 1877,
      "veți": 1878,
      "sute": 1879,
      "poţi": 1880,
      "formar": 1881,
      "caut": 1882,
      "confru": 1883,
      "aceea,": 1884,
      "##intelui": 1885,
      "direcţ": 1886,
      "##nului": 1887,
      "căsăto": 1888,
      "rău": 1889,
      "spatel": 1890,
      "muzică": 1891,
      "*": 1892,
      "##tei": 1893,
      "##ent,": 1894,
      "hotel": 1895,
      "##onează": 1896,
      "cooper": 1897,
      "rapid": 1898,
      "tipuri": 1899,
      "##izarea": 1900,
      "2014": 1901,
      "diplom": 1902,
      "mâna": 1903,
      "discuț": 1904,
      "editur": 1905,
      "parcă": 1906,
      "rugăci": 1907,
      "fenome": 1908,
      "atinge": 1909,
      "##strativ": 1910,
      "ni": 1911,
      "comite": 1912,
      "impact": 1913,
      "fundam": 1914,
      "##zată": 1915,
      "postul": 1916,
      "acela": 1917,
      "iași,": 1918,
      "sensul": 1919,
      "plin": 1920,
      "s-o": 1921,
      "##ră,": 1922,
      "##onarea": 1923,
      "prepar": 1924,
      "##riul": 1925,
      "măsura": 1926,
      "învăța": 1927,
      "pagini": 1928,
      "arhite": 1929,
      "dosaru": 1930,
      "##cări": 1931,
      "zece": 1932,
      "încear": 1933,
      "##entanți": 1934,
      "conven": 1935,
      "radu": 1936,
      "aveau": 1937,
      "##eristic": 1938,
      "accesu": 1939,
      "ucrain": 1940,
      "##.000": 1941,
      "reuşit": 1942,
      "aplică": 1943,
      "mijloa": 1944,
      "##atorii": 1945,
      "cursur": 1946,
      "atenţi": 1947,
      "carier": 1948,
      "##tuie": 1949,
      "##tică": 1950,
      "lupta": 1951,
      "ambele": 1952,
      "englez": 1953,
      "vedem": 1954,
      "preluc": 1955,
      "tradiţ": 1956,
      "făcute": 1957,
      "este,": 1958,
      "agenţi": 1959,
      "facili": 1960,
      "modelu": 1961,
      "bărbaț": 1962,
      "simt": 1963,
      "##ătorii": 1964,
      "##nei": 1965,
      "însemn": 1966,
      "obținu": 1967,
      "rând": 1968,
      "auto": 1969,
      "acele": 1970,
      "##asă": 1971,
      "patria": 1972,
      "federa": 1973,
      "pachet": 1974,
      "vrut": 1975,
      "zeci": 1976,
      "##iar": 1977,
      "clasa": 1978,
      "sînt": 1979,
      "media": 1980,
      "##mi": 1981,
      "lasă": 1982,
      "țara": 1983,
      "##ind": 1984,
      "capito": 1985,
      "confli": 1986,
      "licita": 1987,
      "planul": 1988,
      "amenaj": 1989,
      "fată": 1990,
      "perspe": 1991,
      "consol": 1992,
      "recupe": 1993,
      "emisiu": 1994,
      "totuşi": 1995,
      "margin": 1996,
      "urgenț": 1997,
      "vicepr": 1998,
      "##iale": 1999,
      "lăsat": 2000,
      "muncii": 2001,
      "cereri": 2002,
      "amenin": 2003,
      "##ntele": 2004,
      "cărora": 2005,
      "cod": 2006,
      "platfo": 2007,
      "revolu": 2008,
      "dovedi": 2009,
      "drumur": 2010,
      "creşti": 2011,
      "dispun": 2012,
      "restul": 2013,
      "vânzar": 2014,
      "poată": 2015,
      "##atorul": 2016,
      "preced": 2017,
      "lucrea": 2018,
      "##nia": 2019,
      "puteri": 2020,
      "statut": 2021,
      "mers": 2022,
      "lichid": 2023,
      "##ilitate": 2024,
      "regimu": 2025,
      "gestio": 2026,
      "anal": 2027,
      "profun": 2028,
      "excele": 2029,
      "contur": 2030,
      "sfinte": 2031,
      "##nie": 2032,
      "post": 2033,
      "culori": 2034,
      "stil": 2035,
      "echili": 2036,
      "##lele": 2037,
      "intra": 2038,
      "reform": 2039,
      "echipă": 2040,
      "plata": 2041,
      "liber": 2042,
      "rol": 2043,
      "minuna": 2044,
      "automa": 2045,
      "foto": 2046,
      "acelea": 2047,
      "căruia": 2048,
      "lunii": 2049,
      "elevii": 2050,
      "nu,": 2051,
      "##0,": 2052,
      "2017,": 2053,
      "alege": 2054,
      "mine,": 2055,
      "afară": 2056,
      "##ana": 2057,
      "zonă": 2058,
      "fiu": 2059,
      "mesaje": 2060,
      "##iți": 2061,
      "##tii": 2062,
      "știe": 2063,
      "stimul": 2064,
      "##’": 2065,
      "##smul": 2066,
      "stau": 2067,
      "suspen": 2068,
      "##ra,": 2069,
      "active": 2070,
      "traduc": 2071,
      "circa": 2072,
      "##ională": 2073,
      "scop": 2074,
      "##ere,": 2075,
      "marcat": 2076,
      "intră": 2077,
      "##ătoare": 2078,
      "##nate": 2079,
      "##ok": 2080,
      "ceilal": 2081,
      "aceeaş": 2082,
      "fara": 2083,
      "urgenţ": 2084,
      "sens": 2085,
      "poze": 2086,
      "gabrie": 2087,
      "cunoșt": 2088,
      "pic": 2089,
      "dumitr": 2090,
      "interz": 2091,
      "##bilă": 2092,
      "tribun": 2093,
      "real": 2094,
      "aveam": 2095,
      "##ativ": 2096,
      "metri": 2097,
      "aborda": 2098,
      "atitud": 2099,
      "##ărilor": 2100,
      "facut": 2101,
      "##ezi": 2102,
      "##iere": 2103,
      "##ători": 2104,
      "viitoa": 2105,
      "judici": 2106,
      "##derea": 2107,
      "orele": 2108,
      "##iat": 2109,
      "cînd": 2110,
      "modali": 2111,
      "60": 2112,
      "##alitate": 2113,
      "##ţiile": 2114,
      "alba": 2115,
      "cluj": 2116,
      "rând,": 2117,
      "finalu": 2118,
      "dincol": 2119,
      "biroul": 2120,
      "fizice": 2121,
      "##oase": 2122,
      "##-un": 2123,
      "km": 2124,
      "clasic": 2125,
      "curs": 2126,
      "florin": 2127,
      "t": 2128,
      "sănătă": 2129,
      "v": 2130,
      "b": 2131,
      "##narea": 2132,
      "deci,": 2133,
      "speran": 2134,
      "##ier": 2135,
      "plină": 2136,
      "agrico": 2137,
      "întocm": 2138,
      "simila": 2139,
      "crești": 2140,
      "##w": 2141,
      "mențin": 2142,
      "scriso": 2143,
      "##oarea": 2144,
      "operaț": 2145,
      "mie": 2146,
      "act": 2147,
      "provin": 2148,
      "poartă": 2149,
      "##âna": 2150,
      "presă": 2151,
      "piaţa": 2152,
      "##xe": 2153,
      "##sabilit": 2154,
      "##ati": 2155,
      "spaţiu": 2156,
      "sezonu": 2157,
      "##tia": 2158,
      "tatăl": 2159,
      "anchet": 2160,
      "urmat": 2161,
      "vieții": 2162,
      "exteri": 2163,
      "turist": 2164,
      "grupur": 2165,
      "p.": 2166,
      "liviu": 2167,
      "psihol": 2168,
      "inteli": 2169,
      "lumii": 2170,
      "##mânt": 2171,
      "versiu": 2172,
      "sănăto": 2173,
      "de-al": 2174,
      "ba": 2175,
      "metode": 2176,
      "apar": 2177,
      "violen": 2178,
      "##iție": 2179,
      "200": 2180,
      "presiu": 2181,
      "greuta": 2182,
      "caută": 2183,
      "mântui": 2184,
      "asta,": 2185,
      "##mentulu": 2186,
      "scoate": 2187,
      "2013": 2188,
      "îndrep": 2189,
      "##ţilor": 2190,
      "fructe": 2191,
      "##cia": 2192,
      "##ir": 2193,
      "transi": 2194,
      "stă": 2195,
      "puteţi": 2196,
      "murit": 2197,
      "relati": 2198,
      "par": 2199,
      "stăpân": 2200,
      "costur": 2201,
      "##amentul": 2202,
      "munca": 2203,
      "sale,": 2204,
      "##mat": 2205,
      "alta": 2206,
      "întâi": 2207,
      "unite": 2208,
      "distin": 2209,
      "##ativă": 2210,
      "apoi,": 2211,
      "încărc": 2212,
      "clienț": 2213,
      "negoci": 2214,
      "global": 2215,
      "##tura": 2216,
      "a-i": 2217,
      "##uri,": 2218,
      "teolog": 2219,
      "masă": 2220,
      "sexy": 2221,
      "euro,": 2222,
      "discip": 2223,
      "##ăți": 2224,
      "unităț": 2225,
      "##entat": 2226,
      "reguli": 2227,
      "calită": 2228,
      "oferte": 2229,
      "examen": 2230,
      "##ita": 2231,
      "##onare": 2232,
      "##i:": 2233,
      "creare": 2234,
      "sua": 2235,
      "teen": 2236,
      "hotelu": 2237,
      "##-i": 2238,
      "plante": 2239,
      "500": 2240,
      "##si": 2241,
      "căreia": 2242,
      "clubul": 2243,
      "d": 2244,
      "2012": 2245,
      "##ta,": 2246,
      "u": 2247,
      "exploa": 2248,
      "fusese": 2249,
      "new": 2250,
      "priori": 2251,
      "##ibile": 2252,
      "încura": 2253,
      "conect": 2254,
      "durata": 2255,
      "##anu": 2256,
      "##entarea": 2257,
      "##ştii": 2258,
      "vede": 2259,
      "multor": 2260,
      "iau": 2261,
      "volunt": 2262,
      "##nt,": 2263,
      "sport": 2264,
      "conști": 2265,
      "accent": 2266,
      "meciul": 2267,
      "ordinu": 2268,
      "g": 2269,
      "găseșt": 2270,
      "didact": 2271,
      "for": 2272,
      "plătit": 2273,
      "2016,": 2274,
      "separa": 2275,
      "perico": 2276,
      "contes": 2277,
      "##y,": 2278,
      "##'": 2279,
      "eventu": 2280,
      "net": 2281,
      "aflate": 2282,
      "##mentele": 2283,
      "ţară": 2284,
      "caz,": 2285,
      "fim": 2286,
      "##ist": 2287,
      "oportu": 2288,
      "negati": 2289,
      "„în": 2290,
      "##-uri": 2291,
      "p": 2292,
      "xxx": 2293,
      "##enţă": 2294,
      "##cate": 2295,
      "as": 2296,
      "eşti": 2297,
      "satul": 2298,
      "gândit": 2299,
      "apel": 2300,
      "postur": 2301,
      "##înd": 2302,
      "capul": 2303,
      "criter": 2304,
      "seara": 2305,
      "priveş": 2306,
      "##tri": 2307,
      "auzit": 2308,
      "menţio": 2309,
      "scăzut": 2310,
      "##tra": 2311,
      "autoru": 2312,
      "##știi": 2313,
      "prețul": 2314,
      "frumus": 2315,
      "arunca": 2316,
      "vieţii": 2317,
      "vigoar": 2318,
      "artă": 2319,
      "##ol": 2320,
      "mea,": 2321,
      "combat": 2322,
      "lucrat": 2323,
      "##er,": 2324,
      "ieri": 2325,
      "obţinu": 2326,
      "vorbim": 2327,
      "argume": 2328,
      "alinea": 2329,
      "##ău": 2330,
      "săi": 2331,
      "extind": 2332,
      "dolari": 2333,
      "##cările": 2334,
      "ansamb": 2335,
      "valabi": 2336,
      "dragne": 2337,
      "tv": 2338,
      "##gie": 2339,
      "poziţi": 2340,
      "volumu": 2341,
      "##rate": 2342,
      "deloc": 2343,
      "##rd": 2344,
      "jocul": 2345,
      "palatu": 2346,
      "profil": 2347,
      "##scu,": 2348,
      "ambasa": 2349,
      "maxim": 2350,
      "femini": 2351,
      "dialog": 2352,
      "conser": 2353,
      "traian": 2354,
      "și-au": 2355,
      "putin": 2356,
      "vot": 2357,
      "desigu": 2358,
      "##tic": 2359,
      "opt": 2360,
      "##eaza": 2361,
      "parohi": 2362,
      "reflec": 2363,
      "sesiun": 2364,
      "căutar": 2365,
      "desemn": 2366,
      "catre": 2367,
      "copii,": 2368,
      "##nței": 2369,
      "##gia": 2370,
      "##rii,": 2371,
      "cancer": 2372,
      "justiț": 2373,
      "turism": 2374,
      "mitrop": 2375,
      "unităţ": 2376,
      "##âni": 2377,
      "într-a": 2378,
      "lansar": 2379,
      "totală": 2380,
      "roman": 2381,
      "uşor": 2382,
      "##ipa": 2383,
      "lemn": 2384,
      "##ur": 2385,
      "##tăţilor": 2386,
      "curând": 2387,
      "com": 2388,
      "##lea": 2389,
      "crede": 2390,
      "percep": 2391,
      "##atorilo": 2392,
      "##entanţi": 2393,
      "atmosf": 2394,
      "radio": 2395,
      "delega": 2396,
      "difici": 2397,
      "retrag": 2398,
      "##cte": 2399,
      "##jul": 2400,
      "premii": 2401,
      "lideru": 2402,
      "atrage": 2403,
      "veni": 2404,
      "##ative": 2405,
      "monume": 2406,
      "##ar,": 2407,
      "mașini": 2408,
      "##se,": 2409,
      "aş": 2410,
      "altern": 2411,
      "oră": 2412,
      "cauză": 2413,
      "părere": 2414,
      "##tructur": 2415,
      "pro": 2416,
      "##ns": 2417,
      "lideri": 2418,
      "vorbes": 2419,
      "preocu": 2420,
      "ţara": 2421,
      "îndepă": 2422,
      "##ibil": 2423,
      "ajung": 2424,
      "lumină": 2425,
      "##ață": 2426,
      "oricum": 2427,
      "închid": 2428,
      "efect": 2429,
      "concre": 2430,
      "crea": 2431,
      "grijă": 2432,
      "şedinţ": 2433,
      "făcută": 2434,
      "valea": 2435,
      "tema": 2436,
      "semn": 2437,
      "progre": 2438,
      "celei": 2439,
      "autotu": 2440,
      "etiche": 2441,
      "adesea": 2442,
      "bulgar": 2443,
      "##sc,": 2444,
      "vizibi": 2445,
      "merg": 2446,
      "parche": 2447,
      "excepț": 2448,
      "##aza": 2449,
      "cartie": 2450,
      "străzi": 2451,
      "functi": 2452,
      "##ona": 2453,
      "sc": 2454,
      "##strarea": 2455,
      "abilit": 2456,
      "crăciu": 2457,
      "doreșt": 2458,
      "jucat": 2459,
      "##tie": 2460,
      "comun": 2461,
      "binecu": 2462,
      "dorit": 2463,
      "apărar": 2464,
      "##pe": 2465,
      "promis": 2466,
      "planur": 2467,
      "##lipuri": 2468,
      "oricăr": 2469,
      "creati": 2470,
      "tale": 2471,
      "##uirea": 2472,
      "1,": 2473,
      "infras": 2474,
      "masa": 2475,
      "acțion": 2476,
      "##a:": 2477,
      "urmăre": 2478,
      "sper": 2479,
      "dai": 2480,
      "(3)": 2481,
      "femeia": 2482,
      "bolnav": 2483,
      "liga": 2484,
      "operaţ": 2485,
      "medicu": 2486,
      "expert": 2487,
      "##v,": 2488,
      "##riile": 2489,
      "mulţum": 2490,
      "încadr": 2491,
      "cunoaş": 2492,
      "eu,": 2493,
      "împrum": 2494,
      "aeropo": 2495,
      "##ână": 2496,
      "vizual": 2497,
      "clinic": 2498,
      "##ndu-se": 2499,
      "imperi": 2500,
      "##ori,": 2501,
      "patrim": 2502,
      "obţine": 2503,
      "dezvăl": 2504,
      "acolo,": 2505,
      "discur": 2506,
      "prilej": 2507,
      "cameră": 2508,
      "##torilor": 2509,
      "ştie": 2510,
      "aferen": 2511,
      "vină": 2512,
      "lună": 2513,
      "2011": 2514,
      "bogdan": 2515,
      "##icat": 2516,
      "##ise": 2517,
      "adapta": 2518,
      "##nţei": 2519,
      "încălc": 2520,
      "meci": 2521,
      "##onat": 2522,
      "lectur": 2523,
      "##nare": 2524,
      "satisf": 2525,
      "##ani": 2526,
      "##tar": 2527,
      "dobând": 2528,
      "urmând": 2529,
      "compli": 2530,
      "prelun": 2531,
      "##elor,": 2532,
      "##toratul": 2533,
      "zone": 2534,
      "##riei": 2535,
      "urmă,": 2536,
      "citito": 2537,
      "##iţi": 2538,
      "energe": 2539,
      "prețur": 2540,
      "durere": 2541,
      "capabi": 2542,
      "bugeta": 2543,
      "locală": 2544,
      "petru": 2545,
      "ciuda": 2546,
      "luptă": 2547,
      "tulbur": 2548,
      "joi,": 2549,
      "aposto": 2550,
      "discuţ": 2551,
      "sesiza": 2552,
      "zice": 2553,
      "israel": 2554,
      "alcool": 2555,
      "riscul": 2556,
      "oare": 2557,
      "joacă": 2558,
      "tânăr": 2559,
      "deasup": 2560,
      "0": 2561,
      "##-a": 2562,
      "sfânta": 2563,
      "##iția": 2564,
      "tendin": 2565,
      "motiva": 2566,
      "amplas": 2567,
      "firma": 2568,
      "##strare": 2569,
      "minim": 2570,
      "foc": 2571,
      "##ației": 2572,
      "păstre": 2573,
      "nord": 2574,
      "atelie": 2575,
      "limite": 2576,
      "băsesc": 2577,
      "citit": 2578,
      "liceul": 2579,
      "vindec": 2580,
      "minori": 2581,
      "turneu": 2582,
      "îmbrăc": 2583,
      "vehicu": 2584,
      "nou,": 2585,
      "repara": 2586,
      "timișo": 2587,
      "statis": 2588,
      "contul": 2589,
      "compoz": 2590,
      "##ogie": 2591,
      "web": 2592,
      "conşti": 2593,
      "averti": 2594,
      "##.”": 2595,
      "##ându-se": 2596,
      "top": 2597,
      "plasti": 2598,
      "scăder": 2599,
      "##stă": 2600,
      "sta": 2601,
      "##ctului": 2602,
      "ocupat": 2603,
      "decora": 2604,
      "ascuns": 2605,
      "accesa": 2606,
      "pronun": 2607,
      "noștri": 2608,
      "justiţ": 2609,
      "gândur": 2610,
      "craiov": 2611,
      "##este": 2612,
      "##ătorul": 2613,
      "##urii": 2614,
      "ingred": 2615,
      "duc": 2616,
      "##ch": 2617,
      "marian": 2618,
      "##uat": 2619,
      "2015,": 2620,
      "ca,": 2621,
      "##eau": 2622,
      "##tiva": 2623,
      "##!": 2624,
      "sensib": 2625,
      "pui": 2626,
      "it": 2627,
      "școlar": 2628,
      "banca": 2629,
      "##gere": 2630,
      "catedr": 2631,
      "ține": 2632,
      "##2,": 2633,
      "##ed": 2634,
      "##gi": 2635,
      "lume,": 2636,
      "[": 2637,
      "##iții": 2638,
      "șase": 2639,
      "natură": 2640,
      "fronti": 2641,
      "vreun": 2642,
      "oferta": 2643,
      "iohann": 2644,
      "##ue": 2645,
      "##tează": 2646,
      "ea,": 2647,
      "învăţa": 2648,
      "invent": 2649,
      "sau,": 2650,
      "talent": 2651,
      "parcul": 2652,
      "avocat": 2653,
      "##ndă": 2654,
      "##ion": 2655,
      "manual": 2656,
      "\"": 2657,
      "##5,": 2658,
      "rusia": 2659,
      "cărui": 2660,
      "zic": 2661,
      "##ţei": 2662,
      "domici": 2663,
      "altcev": 2664,
      "extrao": 2665,
      "depind": 2666,
      "devină": 2667,
      "a-l": 2668,
      "##ței": 2669,
      "busine": 2670,
      "organe": 2671,
      "aur": 2672,
      "jur": 2673,
      "2,": 2674,
      "dispus": 2675,
      "##ața": 2676,
      "gradul": 2677,
      "acumul": 2678,
      "##ca,": 2679,
      "contem": 2680,
      "##inat": 2681,
      "fizică": 2682,
      "##ro": 2683,
      "##abil": 2684,
      "aresta": 2685,
      "##nte,": 2686,
      "atat": 2687,
      "##lt": 2688,
      "##u-se": 2689,
      "scos": 2690,
      "##buie": 2691,
      "##and": 2692,
      "##ci,": 2693,
      "##afii": 2694,
      "nation": 2695,
      "##nează": 2696,
      "##je": 2697,
      "pună": 2698,
      "asiati": 2699,
      "educat": 2700,
      "căror": 2701,
      "##atori": 2702,
      "sincer": 2703,
      "##dere": 2704,
      "boli": 2705,
      "dorinț": 2706,
      "##tăm": 2707,
      "ungari": 2708,
      "muncit": 2709,
      "##melor": 2710,
      "obișnu": 2711,
      "##torului": 2712,
      "şi-au": 2713,
      "mâncar": 2714,
      "dureri": 2715,
      "incend": 2716,
      "surse": 2717,
      "##ara,": 2718,
      "marii": 2719,
      "prins": 2720,
      "procen": 2721,
      "împăra": 2722,
      "##enţa": 2723,
      "digita": 2724,
      "vizite": 2725,
      "fondat": 2726,
      "pasiun": 2727,
      "imi": 2728,
      "atâta": 2729,
      "împărt": 2730,
      "mintea": 2731,
      "seria": 2732,
      "viziun": 2733,
      "preț": 2734,
      "##alele": 2735,
      "stilul": 2736,
      "deplin": 2737,
      "acte": 2738,
      "ștefan": 2739,
      "sunteț": 2740,
      "strâns": 2741,
      "invită": 2742,
      "marele": 2743,
      "##atura": 2744,
      "adaugă": 2745,
      "##»": 2746,
      "reacți": 2747,
      "cinema": 2748,
      "centre": 2749,
      "state": 2750,
      "##man": 2751,
      "##aţiile": 2752,
      "amator": 2753,
      "pensii": 2754,
      "aduc": 2755,
      "cazare": 2756,
      "##oasă": 2757,
      "intera": 2758,
      "maghia": 2759,
      "##ă:": 2760,
      "lucru,": 2761,
      "apariț": 2762,
      "aţi": 2763,
      "vadă": 2764,
      "treia": 2765,
      "kilome": 2766,
      "##tice": 2767,
      "veţi": 2768,
      "##?": 2769,
      "##escu,": 2770,
      "2010": 2771,
      "zonele": 2772,
      "##utului": 2773,
      "35": 2774,
      "mei": 2775,
      "gen": 2776,
      "vorbea": 2777,
      "ingine": 2778,
      "voastr": 2779,
      "on": 2780,
      "##ka": 2781,
      "vitami": 2782,
      "##rinderi": 2783,
      "2014,": 2784,
      "legale": 2785,
      "soarel": 2786,
      "proasp": 2787,
      "pictur": 2788,
      "primăv": 2789,
      "mari,": 2790,
      "##3,": 2791,
      "„nu": 2792,
      "excepţ": 2793,
      "##iunile": 2794,
      "gata": 2795,
      "părea": 2796,
      "lung": 2797,
      "matrim": 2798,
      "adrese": 2799,
      "puse": 2800,
      "oraș": 2801,
      "constă": 2802,
      "poti": 2803,
      "##1,": 2804,
      "normel": 2805,
      "##ții,": 2806,
      "unic": 2807,
      "ediție": 2808,
      "impune": 2809,
      "sportu": 2810,
      "sus,": 2811,
      "regist": 2812,
      "prof.": 2813,
      "menţin": 2814,
      "##as": 2815,
      "nevoil": 2816,
      "înapoi": 2817,
      "pnl": 2818,
      "galeri": 2819,
      "##ene": 2820,
      "muncă,": 2821,
      "țări": 2822,
      "insa": 2823,
      "##ti,": 2824,
      "basara": 2825,
      "înaltă": 2826,
      "##ai": 2827,
      "mână": 2828,
      "##ele,": 2829,
      "##um": 2830,
      "##na,": 2831,
      "trupul": 2832,
      "ridică": 2833,
      "încălz": 2834,
      "le-au": 2835,
      "c.": 2836,
      "optimi": 2837,
      "casei": 2838,
      "cetate": 2839,
      "plăcer": 2840,
      "##suri": 2841,
      "liturg": 2842,
      "conver": 2843,
      "cunoşt": 2844,
      "găsesc": 2845,
      "pielea": 2846,
      "arhiep": 2847,
      "##ință": 2848,
      "dori": 2849,
      "f": 2850,
      "degrab": 2851,
      "traseu": 2852,
      "lipsit": 2853,
      "##e)": 2854,
      "ana": 2855,
      "aparți": 2856,
      "să-ți": 2857,
      "##uie": 2858,
      "##inea": 2859,
      "##ăţi": 2860,
      "##ogia": 2861,
      "##g,": 2862,
      "sud": 2863,
      "încep": 2864,
      "școala": 2865,
      "ocupă": 2866,
      "viata": 2867,
      "renunț": 2868,
      "##iparea": 2869,
      "nașter": 2870,
      "olimpi": 2871,
      "##lu": 2872,
      "buni": 2873,
      "##nți": 2874,
      "##ivul": 2875,
      "împied": 2876,
      "paul": 2877,
      "decat": 2878,
      "diagno": 2879,
      "făcând": 2880,
      "vrem": 2881,
      "##ba": 2882,
      "##sele": 2883,
      "##atorulu": 2884,
      "a-și": 2885,
      "întors": 2886,
      "##eriat": 2887,
      "intenț": 2888,
      "google": 2889,
      "ori,": 2890,
      "linișt": 2891,
      "derula": 2892,
      "##nțe": 2893,
      "demers": 2894,
      "market": 2895,
      "pătrun": 2896,
      "forme": 2897,
      "lungim": 2898,
      "faceți": 2899,
      "meciur": 2900,
      "înconj": 2901,
      "pedeps": 2902,
      "votul": 2903,
      "marius": 2904,
      "elevi": 2905,
      "##nile": 2906,
      "##tări": 2907,
      "##ete": 2908,
      "bbw": 2909,
      "scanda": 2910,
      "presa": 2911,
      "isus": 2912,
      "##4,": 2913,
      "favori": 2914,
      "merită": 2915,
      "medie": 2916,
      "##on,": 2917,
      "comună": 2918,
      "civili": 2919,
      "##cile": 2920,
      "##ție,": 2921,
      "##6,": 2922,
      "iti": 2923,
      "##strator": 2924,
      "##30": 2925,
      "meu,": 2926,
      "depus": 2927,
      "fund": 2928,
      "##(": 2929,
      "plânge": 2930,
      "examin": 2931,
      "absent": 2932,
      "(cu": 2933,
      "imposi": 2934,
      "ajungă": 2935,
      "ulei": 2936,
      "conced": 2937,
      "anilor": 2938,
      "##smului": 2939,
      "##scut": 2940,
      "evangh": 2941,
      "##ță,": 2942,
      "ierarh": 2943,
      "distra": 2944,
      "școală": 2945,
      "hd": 2946,
      "##ja": 2947,
      "##il,": 2948,
      "verde": 2949,
      "simplă": 2950,
      "##țele": 2951,
      "##tare,": 2952,
      "descăr": 2953,
      "tranza": 2954,
      "loculu": 2955,
      "##entar": 2956,
      "sindic": 2957,
      "nu-l": 2958,
      "planet": 2959,
      "##sta": 2960,
      "juca": 2961,
      "bucură": 2962,
      "piese": 2963,
      "stat,": 2964,
      "proven": 2965,
      "gura": 2966,
      "##ană,": 2967,
      "sută": 2968,
      "acţion": 2969,
      "căldur": 2970,
      "magist": 2971,
      "legat": 2972,
      "##ești": 2973,
      "by": 2974,
      "300": 2975,
      "lucrez": 2976,
      "undeva": 2977,
      "##aj": 2978,
      "##ficarea": 2979,
      "##strate": 2980,
      "studia": 2981,
      "ochi": 2982,
      "purtat": 2983,
      "alți": 2984,
      "dispar": 2985,
      "disput": 2986,
      "„": 2987,
      "înalt": 2988,
      "mâinil": 2989,
      "bilete": 2990,
      "vlad": 2991,
      "contab": 2992,
      "corpor": 2993,
      "##ini": 2994,
      "2009": 2995,
      "idei": 2996,
      "japone": 2997,
      "lingur": 2998,
      "efecti": 2999,
      "rezolu": 3000,
      "ăsta": 3001,
      "j": 3002,
      "##strație": 3003,
      "refuza": 3004,
      "asemăn": 3005,
      "austri": 3006,
      "##nit": 3007,
      "text": 3008,
      "##tările": 3009,
      "##sat": 3010,
      "),": 3011,
      "privit": 3012,
      "mesaju": 3013,
      "arăta": 3014,
      "lovitu": 3015,
      "##etate": 3016,
      "iisus": 3017,
      "##tați": 3018,
      "părăsi": 3019,
      "case": 3020,
      "celule": 3021,
      "fratel": 3022,
      "##esc,": 3023,
      "##z,": 3024,
      "##xă": 3025,
      "rugăm": 3026,
      "##țiilor": 3027,
      "70": 3028,
      "senato": 3029,
      "mesaj": 3030,
      "##ţele": 3031,
      "##7,": 3032,
      "##-ului": 3033,
      "##ter": 3034,
      "respir": 3035,
      "popesc": 3036,
      "e-mail": 3037,
      "evoluț": 3038,
      "defici": 3039,
      "spună": 3040,
      "armate": 3041,
      "acceso": 3042,
      "##ț": 3043,
      "grigor": 3044,
      "vara": 3045,
      "strălu": 3046,
      "justif": 3047,
      "făcea": 3048,
      "ilegal": 3049,
      "##dei": 3050,
      "ascund": 3051,
      "termic": 3052,
      "minte": 3053,
      "##rit": 3054,
      "repeta": 3055,
      "per": 3056,
      "stradă": 3057,
      "80": 3058,
      "relaxa": 3059,
      "##anul": 3060,
      "acuzat": 3061,
      "declan": 3062,
      "antrep": 3063,
      "32": 3064,
      "armoni": 3065,
      "dosar": 3066,
      "ajutat": 3067,
      "ponta": 3068,
      "##ială": 3069,
      "##ința": 3070,
      "faptel": 3071,
      "propor": 3072,
      "incide": 3073,
      "drepta": 3074,
      "joi": 3075,
      "fc": 3076,
      "2013,": 3077,
      "şase": 3078,
      "grăsim": 3079,
      "##iţie": 3080,
      "##ru,": 3081,
      "ziarul": 3082,
      "##col": 3083,
      "tempor": 3084,
      "gospod": 3085,
      "gol": 3086,
      "presta": 3087,
      "motivu": 3088,
      "opțiun": 3089,
      "romane": 3090,
      "neagră": 3091,
      "elegan": 3092,
      "set": 3093,
      "copilă": 3094,
      "##ţă,": 3095,
      "multip": 3096,
      "flori": 3097,
      "dorim": 3098,
      "scriu": 3099,
      "##tură": 3100,
      "întune": 3101,
      "n-au": 3102,
      "avansa": 3103,
      "găzdui": 3104,
      "scurtă": 3105,
      "##use": 3106,
      "isi": 3107,
      "risc": 3108,
      "##în": 3109,
      "mănânc": 3110,
      "întrer": 3111,
      "##aţiei": 3112,
      "trăies": 3113,
      "timişo": 3114,
      "votat": 3115,
      "sã": 3116,
      "ieftin": 3117,
      "regim": 3118,
      "sanita": 3119,
      "master": 3120,
      "primes": 3121,
      "aparţi": 3122,
      "stea": 3123,
      "pînă": 3124,
      "##uită": 3125,
      "treile": 3126,
      "b)": 3127,
      "##rt": 3128,
      "genul": 3129,
      "„de": 3130,
      "bucătă": 3131,
      "##lii": 3132,
      "##itate,": 3133,
      "##ational": 3134,
      "știi": 3135,
      "şcolar": 3136,
      "##arului": 3137,
      "est": 3138,
      "##inta": 3139,
      "vi": 3140,
      "care-l": 3141,
      "vândut": 3142,
      "refere": 3143,
      "##iv,": 3144,
      "##cată": 3145,
      "dracu": 3146,
      "dată,": 3147,
      "autent": 3148,
      "maşini": 3149,
      "dna": 3150,
      "##inţă": 3151,
      "picior": 3152,
      "is": 3153,
      "citeșt": 3154,
      "##atii": 3155,
      "actori": 3156,
      "spate": 3157,
      "cumva": 3158,
      "punere": 3159,
      "altul": 3160,
      "ne-au": 3161,
      "adecva": 3162,
      "##zia": 3163,
      "planif": 3164,
      "acordă": 3165,
      "cărți": 3166,
      "etapa": 3167,
      "mobile": 3168,
      "calend": 3169,
      "chișin": 3170,
      "chinez": 3171,
      "galben": 3172,
      "alcătu": 3173,
      "vreoda": 3174,
      "esenți": 3175,
      "##trat": 3176,
      "00:00": 3177,
      "expune": 3178,
      "a)": 3179,
      "##k,": 3180,
      "nomina": 3181,
      "rata": 3182,
      "așadar": 3183,
      "i,": 3184,
      "noile": 3185,
      "soviet": 3186,
      "##e”": 3187,
      "mai,": 3188,
      "releva": 3189,
      "##pa": 3190,
      "45": 3191,
      "seară": 3192,
      "uitat": 3193,
      "reabil": 3194,
      "##ză,": 3195,
      "d.": 3196,
      "jandar": 3197,
      "a.": 3198,
      "lungă": 3199,
      "compus": 3200,
      "potenț": 3201,
      "nevoia": 3202,
      "aveţi": 3203,
      "##icarea": 3204,
      "oricar": 3205,
      "voie": 3206,
      "autost": 3207,
      "cabine": 3208,
      "incepu": 3209,
      "##lei": 3210,
      "colecț": 3211,
      "elena": 3212,
      "braşov": 3213,
      "##bă": 3214,
      "ordin": 3215,
      "regele": 3216,
      "2012,": 3217,
      "vorbi": 3218,
      "90": 3219,
      "elevil": 3220,
      "mașină": 3221,
      "legume": 3222,
      "alb": 3223,
      "anual": 3224,
      "primea": 3225,
      "advers": 3226,
      "întârz": 3227,
      "##ire,": 3228,
      "dosare": 3229,
      "bicicl": 3230,
      "##inţa": 3231,
      "scena": 3232,
      "anunță": 3233,
      "sfinți": 3234,
      "sfinţi": 3235,
      "tensiu": 3236,
      "##iţia": 3237,
      "frunte": 3238,
      "farmac": 3239,
      ";": 3240,
      "filoso": 3241,
      "patron": 3242,
      "intitu": 3243,
      "##atului": 3244,
      "stânga": 3245,
      "tipul": 3246,
      "lucrăt": 3247,
      "2011,": 3248,
      "##ințe": 3249,
      "tudor": 3250,
      "##me,": 3251,
      "srl": 3252,
      "##eți": 3253,
      "vânzăr": 3254,
      "aventu": 3255,
      "„o": 3256,
      "##a)": 3257,
      "crimin": 3258,
      "strict": 3259,
      "cm": 3260,
      "3,": 3261,
      "vremur": 3262,
      "linia": 3263,
      "rețele": 3264,
      "câțiva": 3265,
      "or": 3266,
      "##ntelor": 3267,
      "##50": 3268,
      "##mentelo": 3269,
      "căzut": 3270,
      "referă": 3271,
      "##cu,": 3272,
      "oradea": 3273,
      "##seră": 3274,
      "umane": 3275,
      "fond": 3276,
      "sorin": 3277,
      "plată": 3278,
      "m.": 3279,
      "##straţie": 3280,
      "r.": 3281,
      "cadru": 3282,
      "##os,": 3283,
      "simpto": 3284,
      "cântăr": 3285,
      "##itor": 3286,
      "opinia": 3287,
      "prefec": 3288,
      "##ionat": 3289,
      "##nde": 3290,
      "închir": 3291,
      "cornel": 3292,
      "legi": 3293,
      "##entelor": 3294,
      "multi": 3295,
      "##eta": 3296,
      "cealal": 3297,
      "##riu": 3298,
      "##vi": 3299,
      "##hi": 3300,
      "pensio": 3301,
      "nu-mi": 3302,
      "2008": 3303,
      "opera": 3304,
      "dorinţ": 3305,
      "sumă": 3306,
      "trăit": 3307,
      "băutur": 3308,
      "##iară": 3309,
      "sat": 3310,
      "purtăt": 3311,
      "colora": 3312,
      "##turi": 3313,
      "##8,": 3314,
      "##tru": 3315,
      "blog": 3316,
      "robert": 3317,
      "creier": 3318,
      "țării": 3319,
      "milf": 3320,
      "jos,": 3321,
      "ocupar": 3322,
      "rămân": 3323,
      "ro": 3324,
      "aducă": 3325,
      "pădure": 3326,
      "##izat": 3327,
      "mascul": 3328,
      "ţine": 3329,
      "gândir": 3330,
      "inca": 3331,
      "mișcar": 3332,
      "luate": 3333,
      "penală": 3334,
      "estima": 3335,
      "##brie,": 3336,
      "dificu": 3337,
      "regizo": 3338,
      "duhovn": 3339,
      "##ts": 3340,
      "##zii": 3341,
      "afirmă": 3342,
      "cluj-n": 3343,
      "teoret": 3344,
      "sursa": 3345,
      "##eni,": 3346,
      "naşter": 3347,
      "##pul": 3348,
      "simpli": 3349,
      "mici,": 3350,
      "##ţiilor": 3351,
      "emines": 3352,
      "export": 3353,
      "150": 3354,
      "poveșt": 3355,
      "reacţi": 3356,
      "##dă,": 3357,
      "simți": 3358,
      "ofere": 3359,
      "pornit": 3360,
      "occide": 3361,
      "##ntului": 3362,
      "renunţ": 3363,
      "urmato": 3364,
      "teme": 3365,
      "##tiv,": 3366,
      "##rs": 3367,
      "mister": 3368,
      "aduse": 3369,
      "firme": 3370,
      "##20": 3371,
      "noului": 3372,
      "pericu": 3373,
      "##ivele": 3374,
      "primă": 3375,
      "strâng": 3376,
      "##aţă": 3377,
      "sfatur": 3378,
      "scor": 3379,
      "grade": 3380,
      "mi-au": 3381,
      "oară": 3382,
      "veche": 3383,
      "albast": 3384,
      "##abile": 3385,
      "cateva": 3386,
      "pagină": 3387,
      "grav": 3388,
      "acasă,": 3389,
      "live": 3390,
      "devin": 3391,
      "inculp": 3392,
      "ieri,": 3393,
      "”": 3394,
      "abando": 3395,
      "##tând": 3396,
      "corp": 3397,
      "idee": 3398,
      "cărei": 3399,
      "afecte": 3400,
      "##ral": 3401,
      "grafic": 3402,
      "vizită": 3403,
      "ecolog": 3404,
      "sursă": 3405,
      "incred": 3406,
      "maximă": 3407,
      "##!”": 3408,
      "cronic": 3409,
      "cookie": 3410,
      "numără": 3411,
      "prejud": 3412,
      "demisi": 3413,
      "##oniale": 3414,
      "apariţ": 3415,
      "lumini": 3416,
      "tine,": 3417,
      "intr-o": 3418,
      "las": 3419,
      "felici": 3420,
      "##oara": 3421,
      "vară": 3422,
      "contea": 3423,
      "##să,": 3424,
      "##ite,": 3425,
      "accesi": 3426,
      "decide": 3427,
      "păduri": 3428,
      "##palele": 3429,
      "medic": 3430,
      "autono": 3431,
      "romanu": 3432,
      "finală": 3433,
      "re": 3434,
      "##inte,": 3435,
      "##icate": 3436,
      "tub": 3437,
      "adevar": 3438,
      "(sau": 3439,
      "dispăr": 3440,
      "îndrăg": 3441,
      "răspân": 3442,
      "factur": 3443,
      "##ări,": 3444,
      "rămână": 3445,
      "##nată": 3446,
      "cătăli": 3447,
      "##uta": 3448,
      "rece": 3449,
      "i.": 3450,
      "##ke": 3451,
      "·": 3452,
      "imprim": 3453,
      "##co": 3454,
      "##mea": 3455,
      "scrise": 3456,
      "super": 3457,
      "bancar": 3458,
      "##op": 3459,
      "##ucerea": 3460,
      "țările": 3461,
      "onoare": 3462,
      "##e;": 3463,
      "##ţii,": 3464,
      "formaț": 3465,
      "autor": 3466,
      "matema": 3467,
      "admite": 3468,
      "##tului,": 3469,
      "intenţ": 3470,
      "africa": 3471,
      "alții": 3472,
      "k": 3473,
      "medali": 3474,
      "normat": 3475,
      "mihail": 3476,
      "sânge": 3477,
      "deceni": 3478,
      "trec": 3479,
      "33": 3480,
      "##unile": 3481,
      "5,": 3482,
      "întind": 3483,
      "vacanț": 3484,
      "2007": 3485,
      "timpur": 3486,
      "lăsa": 3487,
      "piele": 3488,
      "##nda": 3489,
      "fel,": 3490,
      "suprem": 3491,
      "##tor,": 3492,
      "primii": 3493,
      "cerinț": 3494,
      "##gem": 3495,
      "##iţii": 3496,
      "tânăru": 3497,
      "poezii": 3498,
      "##ţ": 3499,
      "##ilă": 3500,
      "liberă": 3501,
      "parale": 3502,
      "poloni": 3503,
      "ocazie": 3504,
      "admira": 3505,
      "petrol": 3506,
      "dinami": 3507,
      "lucrul": 3508,
      "marca": 3509,
      "prezid": 3510,
      "celorl": 3511,
      "insist": 3512,
      "##riale": 3513,
      "##-n": 3514,
      "porunc": 3515,
      "##ipă": 3516,
      "rândur": 3517,
      "club": 3518,
      "##dul": 3519,
      "„am": 3520,
      "##afie": 3521,
      "##ean": 3522,
      "explor": 3523,
      "linişt": 3524,
      "##urarea": 3525,
      "adunar": 3526,
      "legend": 3527,
      "brașov": 3528,
      "cultiv": 3529,
      "achita": 3530,
      "##ortul": 3531,
      "coloan": 3532,
      "h": 3533,
      "limbaj": 3534,
      "riscur": 3535,
      "cântec": 3536,
      "stiu": 3537,
      "s.": 3538,
      "carne": 3539,
      "șapte": 3540,
      "ideal": 3541,
      "redact": 3542,
      "##lizat": 3543,
      "comerț": 3544,
      "2000": 3545,
      "piață": 3546,
      "suspec": 3547,
      "aia": 3548,
      "ce,": 3549,
      "simple": 3550,
      "clasam": 3551,
      "noştri": 3552,
      "##aţa": 3553,
      "totali": 3554,
      "dăm": 3555,
      "chirur": 3556,
      "buget": 3557,
      "celăla": 3558,
      "secțiu": 3559,
      "iunie,": 3560,
      "filial": 3561,
      "##rea,": 3562,
      "##uce": 3563,
      "marile": 3564,
      "martor": 3565,
      "rezide": 3566,
      "intr-u": 3567,
      "piatra": 3568,
      "vizeaz": 3569,
      "klaus": 3570,
      "preţul": 3571,
      "autobu": 3572,
      "##erare": 3573,
      "aparte": 3574,
      "melodi": 3575,
      "##nic": 3576,
      "iubesc": 3577,
      "##pale": 3578,
      "primir": 3579,
      "prim": 3580,
      "34": 3581,
      "faza": 3582,
      "penal": 3583,
      "scenar": 3584,
      "final,": 3585,
      "(4)": 3586,
      "condit": 3587,
      "##rei": 3588,
      "valent": 3589,
      "cauzat": 3590,
      "##etatea": 3591,
      "porn": 3592,
      "cluj,": 3593,
      "nud": 3594,
      "arbitr": 3595,
      "##nţe": 3596,
      "arta": 3597,
      "##pală": 3598,
      "free": 3599,
      "scopur": 3600,
      "citate": 3601,
      "##ciază": 3602,
      "##ck": 3603,
      "costum": 3604,
      "##natul": 3605,
      "##cele": 3606,
      "simte": 3607,
      "închin": 3608,
      "împrej": 3609,
      "locuie": 3610,
      "şcoala": 3611,
      "autove": 3612,
      "##é": 3613,
      "păr": 3614,
      "domina": 3615,
      "scrisă": 3616,
      "sibiu": 3617,
      "gândul": 3618,
      "obişnu": 3619,
      "bun,": 3620,
      "medii,": 3621,
      "baia": 3622,
      "ajute": 3623,
      "parcar": 3624,
      "prinde": 3625,
      "meargă": 3626,
      "depăși": 3627,
      "gândes": 3628,
      "firmel": 3629,
      "ți": 3630,
      "fapte": 3631,
      "vârste": 3632,
      "z": 3633,
      "alţii": 3634,
      "alţi": 3635,
      "creeaz": 3636,
      "##be": 3637,
      "pasion": 3638,
      "terapi": 3639,
      "prives": 3640,
      "lider": 3641,
      "a-şi": 3642,
      "majora": 3643,
      "cuceri": 3644,
      "##ad": 3645,
      "##ățile": 3646,
      "civilă": 3647,
      "##pă": 3648,
      "cs": 3649,
      "#": 3650,
      "##icare": 3651,
      "dovadă": 3652,
      "ciudat": 3653,
      "terori": 3654,
      "raspun": 3655,
      "titlu": 3656,
      "presed": 3657,
      "##);": 3658,
      "așteap": 3659,
      "divizi": 3660,
      "teodor": 3661,
      "evoluţ": 3662,
      "favoar": 3663,
      "astea": 3664,
      "vegeta": 3665,
      "labora": 3666,
      "activa": 3667,
      "##-te": 3668,
      "editor": 3669,
      "##onul": 3670,
      "șef": 3671,
      "plecar": 3672,
      "grad": 3673,
      "##tati": 3674,
      "însoți": 3675,
      "alocat": 3676,
      "ovidiu": 3677,
      "înceta": 3678,
      "vladim": 3679,
      "lucian": 3680,
      "##teca": 3681,
      "sancți": 3682,
      "##ită,": 3683,
      "treacă": 3684,
      "domniș": 3685,
      "##uite": 3686,
      "titula": 3687,
      "apă,": 3688,
      "creste": 3689,
      "clienţ": 3690,
      "##rma": 3691,
      "vest": 3692,
      "poezie": 3693,
      "##10": 3694,
      "##ente,": 3695,
      "crezut": 3696,
      "##atoare": 3697,
      "şapte": 3698,
      "actul": 3699,
      "fundaț": 3700,
      "protoc": 3701,
      "preotu": 3702,
      "ieșit": 3703,
      "ceva,": 3704,
      "moscov": 3705,
      "##ry": 3706,
      "fiica": 3707,
      "spunem": 3708,
      "muzici": 3709,
      "titlur": 3710,
      "mature": 3711,
      "uita": 3712,
      "evita": 3713,
      "depist": 3714,
      "apei": 3715,
      "regulă": 3716,
      "scrier": 3717,
      "n-ar": 3718,
      "comenz": 3719,
      "##ficat": 3720,
      "##a”": 3721,
      "temeiu": 3722,
      "vorbeș": 3723,
      "antico": 3724,
      "##rale": 3725,
      "perech": 3726,
      "csm": 3727,
      "frunze": 3728,
      "##ric": 3729,
      "##ielile": 3730,
      "vizion": 3731,
      "mental": 3732,
      "'": 3733,
      "david": 3734,
      "##ndat": 3735,
      "##cilor": 3736,
      "azi,": 3737,
      "emil": 3738,
      "chat": 3739,
      "inscri": 3740,
      "c)": 3741,
      "##uții": 3742,
      "##cea": 3743,
      "spania": 3744,
      "te-ai": 3745,
      "sume": 3746,
      "##ţie,": 3747,
      "##9,": 3748,
      "##ki": 3749,
      "##iază": 3750,
      "voia": 3751,
      "stiri": 3752,
      "emis": 3753,
      "##ty": 3754,
      "##eşti": 3755,
      "##rează": 3756,
      "lucra": 3757,
      "4,": 3758,
      "întări": 3759,
      "iubito": 3760,
      "%": 3761,
      "oferim": 3762,
      "##ha": 3763,
      "adunat": 3764,
      "hai": 3765,
      "congre": 3766,
      "inaugu": 3767,
      "preasf": 3768,
      "ilumin": 3769,
      "##nând": 3770,
      "##zând": 3771,
      "48": 3772,
      "căutat": 3773,
      "castel": 3774,
      "ilustr": 3775,
      "##ko": 3776,
      "demnit": 3777,
      "##t:": 3778,
      "lovit": 3779,
      "##ali": 3780,
      "##erată": 3781,
      "serial": 3782,
      "##ieli": 3783,
      "##s:": 3784,
      "oferin": 3785,
      "bărbaţ": 3786,
      "livrar": 3787,
      "##.......": 3788,
      "##t-o": 3789,
      "##do": 3790,
      "armata": 3791,
      "știm": 3792,
      "parfum": 3793,
      "##ton": 3794,
      "m-au": 3795,
      "##sca": 3796,
      "echiva": 3797,
      "read": 3798,
      "mulțim": 3799,
      "adulți": 3800,
      "##mântul": 3801,
      "sunt,": 3802,
      "##orma": 3803,
      "##esti": 3804,
      "desi": 3805,
      "tranzi": 3806,
      "restri": 3807,
      "##stul": 3808,
      "##to": 3809,
      "nota": 3810,
      "pavel": 3811,
      "naturi": 3812,
      "##ǎ": 3813,
      "larg": 3814,
      "diminu": 3815,
      "îndemn": 3816,
      "neapăr": 3817,
      "note": 3818,
      "activ": 3819,
      "linie": 3820,
      "agresi": 3821,
      "decît": 3822,
      "dramat": 3823,
      "creato": 3824,
      "întru": 3825,
      "masaj": 3826,
      "aparen": 3827,
      "##[": 3828,
      "piatră": 3829,
      "slujba": 3830,
      "chimic": 3831,
      "circum": 3832,
      "##una": 3833,
      "ce-i": 3834,
      "desene": 3835,
      "formaţ": 3836,
      "##iza": 3837,
      "creați": 3838,
      "##zării": 3839,
      "##ut,": 3840,
      "##ațiilor": 3841,
      "legiti": 3842,
      "semina": 3843,
      "ţări": 3844,
      "aniver": 3845,
      "ediţie": 3846,
      "chişin": 3847,
      "be": 3848,
      "report": 3849,
      "##ve,": 3850,
      "##la,": 3851,
      "dovede": 3852,
      "##ya": 3853,
      "##i”": 3854,
      "##agă": 3855,
      "durabi": 3856,
      "punem": 3857,
      "36": 3858,
      "at": 3859,
      "oprit": 3860,
      "cît": 3861,
      "home": 3862,
      "volum": 3863,
      "pompie": 3864,
      "tablou": 3865,
      "##nţa,": 3866,
      "civile": 3867,
      "(la": 3868,
      "numită": 3869,
      "##е": 3870,
      "toti": 3871,
      "2010,": 3872,
      "preţur": 3873,
      "##bilitat": 3874,
      "oricin": 3875,
      "sancţi": 3876,
      "multum": 3877,
      "țin": 3878,
      "listă": 3879,
      "citest": 3880,
      "regret": 3881,
      "plimba": 3882,
      "piesa": 3883,
      "subord": 3884,
      "legal": 3885,
      "pline": 3886,
      "trăi": 3887,
      "rapidă": 3888,
      "franța": 3889,
      "##ctiva": 3890,
      "##les": 3891,
      "doreşt": 3892,
      "mașina": 3893,
      "părul": 3894,
      "precis": 3895,
      "##ătorilo": 3896,
      "##anta": 3897,
      "duhul": 3898,
      "vacant": 3899,
      "aflată": 3900,
      "pat": 3901,
      "##sant": 3902,
      "disper": 3903,
      "mp": 3904,
      "##ipe": 3905,
      "argint": 3906,
      "depend": 3907,
      "bateri": 3908,
      "apărea": 3909,
      "valeri": 3910,
      "##ău,": 3911,
      "atac": 3912,
      "##com": 3913,
      "manipu": 3914,
      "băieți": 3915,
      "##st,": 3916,
      "franci": 3917,
      "##ogic": 3918,
      "##sează": 3919,
      "târgu": 3920,
      "nimic,": 3921,
      "ştefan": 3922,
      "confec": 3923,
      "##ormat": 3924,
      "recons": 3925,
      "necuno": 3926,
      "##atelor": 3927,
      "postat": 3928,
      "##one": 3929,
      "##oni": 3930,
      "notifi": 3931,
      "remedi": 3932,
      "##io": 3933,
      "segmen": 3934,
      "lacrim": 3935,
      "bani,": 3936,
      "învins": 3937,
      "spui": 3938,
      "peisaj": 3939,
      "##ătate": 3940,
      "şef": 3941,
      "vis": 3942,
      "ţării": 3943,
      "scenă": 3944,
      "eugen": 3945,
      "reamin": 3946,
      "##p,": 3947,
      "hârtie": 3948,
      "vinova": 3949,
      "stadio": 3950,
      "##irile": 3951,
      "acasa": 3952,
      "sens,": 3953,
      "largă": 3954,
      "şeful": 3955,
      "##id": 3956,
      "durată": 3957,
      "salvat": 3958,
      "##ly": 3959,
      "37": 3960,
      "porumb": 3961,
      "##ziune": 3962,
      "loc,": 3963,
      "studio": 3964,
      "(din": 3965,
      "##ipare": 3966,
      "replic": 3967,
      "purta": 3968,
      "##sității": 3969,
      "toamna": 3970,
      "londra": 3971,
      "ha": 3972,
      "citi": 3973,
      "poarta": 3974,
      "cumper": 3975,
      "numere": 3976,
      "luăm": 3977,
      "##de,": 3978,
      "serios": 3979,
      "traver": 3980,
      "doamnă": 3981,
      "cunoas": 3982,
      "bucovi": 3983,
      "##list": 3984,
      "doriți": 3985,
      "##chi": 3986,
      "##icul": 3987,
      "inferi": 3988,
      "refugi": 3989,
      "##e”,": 3990,
      "bună,": 3991,
      "toata": 3992,
      "revizu": 3993,
      "andree": 3994,
      "##ască,": 3995,
      "##atic": 3996,
      "##21": 3997,
      "treaba": 3998,
      "record": 3999,
      "șeful": 4000,
      "##area,": 4001,
      "##ism": 4002,
      "##erate": 4003,
      "##h,": 4004,
      "##i)": 4005,
      "pregat": 4006,
      "##ajul": 4007,
      "##di": 4008,
      "nevoit": 4009,
      "##ieri": 4010,
      "##om": 4011,
      "maramu": 4012,
      "apărăr": 4013,
      "##aje": 4014,
      "limbă": 4015,
      "ilie": 4016,
      "anexa": 4017,
      "săvârş": 4018,
      "baie": 4019,
      "împără": 4020,
      "maşina": 4021,
      "penale": 4022,
      "însuşi": 4023,
      "pretin": 4024,
      "spații": 4025,
      "fundul": 4026,
      "##anu,": 4027,
      "asocie": 4028,
      "##rilor,": 4029,
      "##gii": 4030,
      "etapă": 4031,
      "să-ţi": 4032,
      "##lată": 4033,
      "senatu": 4034,
      "drept,": 4035,
      "##nță,": 4036,
      "pleacă": 4037,
      "ediția": 4038,
      "tras": 4039,
      "credea": 4040,
      "medii": 4041,
      "regăse": 4042,
      "softwa": 4043,
      "meseri": 4044,
      "animat": 4045,
      "gimnaz": 4046,
      "întorc": 4047,
      "##ogice": 4048,
      "semne": 4049,
      "„a": 4050,
      "impus": 4051,
      "ele,": 4052,
      "viteză": 4053,
      "iei": 4054,
      "acelui": 4055,
      "rus": 4056,
      "pedeap": 4057,
      "înalte": 4058,
      "coborâ": 4059,
      "negre": 4060,
      "fost,": 4061,
      "##dat": 4062,
      "petre": 4063,
      "climat": 4064,
      "##и": 4065,
      "incomp": 4066,
      "bucur": 4067,
      "bineîn": 4068,
      "##atice": 4069,
      "săvârș": 4070,
      "##buit": 4071,
      "extins": 4072,
      "iulie,": 4073,
      "încânt": 4074,
      "psd,": 4075,
      "55": 4076,
      "vii": 4077,
      "ieşit": 4078,
      "bebelu": 4079,
      "##lare": 4080,
      "##no": 4081,
      "deține": 4082,
      "##surile": 4083,
      "##ber": 4084,
      "38": 4085,
      "##bui": 4086,
      "##.,": 4087,
      "400": 4088,
      "proba": 4089,
      "39": 4090,
      "2009,": 4091,
      "##tamentu": 4092,
      "minera": 4093,
      "##stra": 4094,
      "##son": 4095,
      "fetele": 4096,
      "(a": 4097,
      "român,": 4098,
      "##ov": 4099,
      "no": 4100,
      "sexul": 4101,
      "##ive,": 4102,
      "automo": 4103,
      "soția": 4104,
      "gama": 4105,
      "##urate": 4106,
      "pricin": 4107,
      "găseas": 4108,
      "##25": 4109,
      "întrun": 4110,
      "câţiva": 4111,
      "compen": 4112,
      "devrem": 4113,
      "depăşi": 4114,
      "##th": 4115,
      "îndrum": 4116,
      "##-urile": 4117,
      "forțel": 4118,
      "vaccin": 4119,
      "numaru": 4120,
      "arheol": 4121,
      "##tion": 4122,
      "specii": 4123,
      "##q": 4124,
      "##sabil": 4125,
      "pasage": 4126,
      "##der": 4127,
      "di": 4128,
      "steaua": 4129,
      "##\\u": 4130,
      "îndrăz": 4131,
      "țâțe": 4132,
      "părți": 4133,
      "en": 4134,
      "simona": 4135,
      "port": 4136,
      "cinsti": 4137,
      "bistri": 4138,
      "malul": 4139,
      "##itoare": 4140,
      "##x,": 4141,
      "##enit": 4142,
      "chemat": 4143,
      "ceremo": 4144,
      "bazeaz": 4145,
      "44": 4146,
      "datora": 4147,
      "pre": 4148,
      "geogra": 4149,
      "mastur": 4150,
      "##ac": 4151,
      "##dra": 4152,
      "##at:": 4153,
      "inters": 4154,
      "artișt": 4155,
      "redus": 4156,
      "favora": 4157,
      "plac": 4158,
      "limită": 4159,
      "cutrem": 4160,
      "trimes": 4161,
      "##che": 4162,
      "legată": 4163,
      "##is,": 4164,
      "weeken": 4165,
      "##ăr": 4166,
      "##enii": 4167,
      "egalit": 4168,
      "maicii": 4169,
      "sală": 4170,
      "atâtea": 4171,
      "##asa": 4172,
      "##relor": 4173,
      "satulu": 4174,
      "milion": 4175,
      "san": 4176,
      "cadrel": 4177,
      "mm": 4178,
      "dinamo": 4179,
      "6,": 4180,
      "gaze": 4181,
      "sfânt": 4182,
      "##nţi": 4183,
      "demara": 4184,
      "boala": 4185,
      "planta": 4186,
      "indian": 4187,
      "atins": 4188,
      "catalo": 4189,
      "“": 4190,
      "##uarea": 4191,
      "formea": 4192,
      "descur": 4193,
      "pretul": 4194,
      "christ": 4195,
      "##hie": 4196,
      "tânără": 4197,
      "credem": 4198,
      "‘": 4199,
      "42": 4200,
      "n-o": 4201,
      "(o": 4202,
      "arte": 4203,
      "scorul": 4204,
      "gamă": 4205,
      "##sem": 4206,
      "predic": 4207,
      "##eghere": 4208,
      "buzuna": 4209,
      "opri": 4210,
      "sacrif": 4211,
      "pielii": 4212,
      "##î": 4213,
      "##alelor": 4214,
      "##ifice": 4215,
      "rădăci": 4216,
      "##ada": 4217,
      "ţin": 4218,
      "adânci": 4219,
      "ta,": 4220,
      "##ons": 4221,
      "arate": 4222,
      "metoda": 4223,
      "citesc": 4224,
      "plătea": 4225,
      "pace": 4226,
      "##ivitate": 4227,
      "selecț": 4228,
      "##bil,": 4229,
      "pusă": 4230,
      "metodo": 4231,
      "##ogii": 4232,
      "metodă": 4233,
      "##ament": 4234,
      "trage": 4235,
      "pricep": 4236,
      "suferă": 4237,
      "revine": 4238,
      "cotidi": 4239,
      "raza": 4240,
      "vie": 4241,
      "shemal": 4242,
      "##rată": 4243,
      "##in,": 4244,
      "mobil": 4245,
      "grave": 4246,
      "mişcar": 4247,
      "41": 4248,
      "##rtul": 4249,
      "##tară": 4250,
      "difuza": 4251,
      "atras": 4252,
      "pomeni": 4253,
      "##99": 4254,
      "65": 4255,
      "47": 4256,
      "##colul": 4257,
      "portof": 4258,
      "majore": 4259,
      "##nu,": 4260,
      "biolog": 4261,
      "«": 4262,
      "##ntat": 4263,
      "italie": 4264,
      "așa,": 4265,
      "##rde": 4266,
      "pietre": 4267,
      "##zi,": 4268,
      "brandu": 4269,
      "vaslui": 4270,
      "atacat": 4271,
      "##go": 4272,
      "uite": 4273,
      "montan": 4274,
      "câmpul": 4275,
      "##gic": 4276,
      "http:/": 4277,
      "##cării": 4278,
      "claudi": 4279,
      "et": 4280,
      "mutat": 4281,
      "utilit": 4282,
      "mâine": 4283,
      "##ării,": 4284,
      "ţi": 4285,
      "poli": 4286,
      "legile": 4287,
      "##ee": 4288,
      "ambala": 4289,
      "oraş": 4290,
      "##rării": 4291,
      "actele": 4292,
      "reale": 4293,
      "##ace": 4294,
      "ținut": 4295,
      "noii": 4296,
      "##istul": 4297,
      "##inarea": 4298,
      "însoţi": 4299,
      "##18": 4300,
      "du": 4301,
      "crezi": 4302,
      "##ară,": 4303,
      "„la": 4304,
      "sticlă": 4305,
      "adăpos": 4306,
      "period": 4307,
      "comput": 4308,
      "##zeze": 4309,
      "##22": 4310,
      "prosti": 4311,
      "##ierea": 4312,
      "albă": 4313,
      "grecia": 4314,
      "şcoală": 4315,
      "##ițiile": 4316,
      "accele": 4317,
      "tara": 4318,
      "##tem": 4319,
      "000": 4320,
      "51": 4321,
      "##ual": 4322,
      "virtua": 4323,
      "##xul": 4324,
      "anunţă": 4325,
      "spanio": 4326,
      "aflăm": 4327,
      "##nal": 4328,
      "limbii": 4329,
      "##țat": 4330,
      "inaint": 4331,
      "fi,": 4332,
      "gust": 4333,
      "artifi": 4334,
      "##tuit": 4335,
      "##elui": 4336,
      "episod": 4337,
      "urgent": 4338,
      "##inţe": 4339,
      "unirea": 4340,
      "mergem": 4341,
      "(care": 4342,
      "##nale": 4343,
      "43": 4344,
      "##oi": 4345,
      "evolua": 4346,
      "##ole": 4347,
      "care-i": 4348,
      "john": 4349,
      "cate": 4350,
      "##ant,": 4351,
      "debuta": 4352,
      "##’s": 4353,
      "deranj": 4354,
      "bea": 4355,
      "grija": 4356,
      "ducă": 4357,
      "china": 4358,
      "înteme": 4359,
      "despăr": 4360,
      "entuzi": 4361,
      "urcat": 4362,
      "puține": 4363,
      "##lvania": 4364,
      "creaţi": 4365,
      "deocam": 4366,
      "tva": 4367,
      "sezon": 4368,
      "2008,": 4369,
      "##entând": 4370,
      "antici": 4371,
      "##lelor": 4372,
      "##uia": 4373,
      "homose": 4374,
      "pleca": 4375,
      "spus,": 4376,
      "##trează": 4377,
      "preoți": 4378,
      "##ase,": 4379,
      "casele": 4380,
      "costul": 4381,
      "##te:": 4382,
      "##dată": 4383,
      "dn": 4384,
      "soare": 4385,
      "cărţi": 4386,
      "e.": 4387,
      "turcia": 4388,
      "lapte": 4389,
      "regatu": 4390,
      "întreț": 4391,
      "acelor": 4392,
      "##toare,": 4393,
      "ore,": 4394,
      "însuși": 4395,
      "##40": 4396,
      "senzaț": 4397,
      "##nța,": 4398,
      "solida": 4399,
      "atacur": 4400,
      "bloc": 4401,
      "primei": 4402,
      "##fie": 4403,
      "aşadar": 4404,
      "curte": 4405,
      "naviga": 4406,
      "##og": 4407,
      "preten": 4408,
      "##strează": 4409,
      "##12": 4410,
      "pornog": 4411,
      "##11": 4412,
      "propag": 4413,
      "modulu": 4414,
      "##ji": 4415,
      "simțit": 4416,
      "pt": 4417,
      "toamnă": 4418,
      "##anța": 4419,
      "w": 4420,
      "ml": 4421,
      "cfr": 4422,
      "motor": 4423,
      "poate,": 4424,
      "##fa": 4425,
      "când,": 4426,
      "##eul": 4427,
      "seara,": 4428,
      "2006": 4429,
      "utilaj": 4430,
      "sculpt": 4431,
      "depuse": 4432,
      "##pat": 4433,
      "viteza": 4434,
      "vorbeş": 4435,
      "absorb": 4436,
      "vazut": 4437,
      "bate": 4438,
      "cafea": 4439,
      "##tre": 4440,
      "citat": 4441,
      "##–": 4442,
      "y": 4443,
      "sunteţ": 4444,
      "##icativ": 4445,
      "circui": 4446,
      "puteau": 4447,
      "##ment,": 4448,
      "sol": 4449,
      "iese": 4450,
      "uită": 4451,
      "rea": 4452,
      "judetu": 4453,
      "rom": 4454,
      "dor": 4455,
      "vina": 4456,
      "domn": 4457,
      "firmei": 4458,
      "##est": 4459,
      "taxa": 4460,
      "con": 4461,
      "##abilă": 4462,
      "inedit": 4463,
      "satu": 4464,
      "black": 4465,
      "fizic": 4466,
      "van": 4467,
      "##ierii": 4468,
      "semnul": 4469,
      "sua,": 4470,
      "potenţ": 4471,
      "##ă”": 4472,
      "iarnă": 4473,
      "minciu": 4474,
      "împărț": 4475,
      "tau": 4476,
      "reţele": 4477,
      "orizon": 4478,
      "cã": 4479,
      "lesbia": 4480,
      "##șa": 4481,
      "oficiu": 4482,
      "preţ": 4483,
      "prospe": 4484,
      "protei": 4485,
      "comisa": 4486,
      "##e.": 4487,
      "##*": 4488,
      "neamul": 4489,
      "##mare": 4490,
      "chip": 4491,
      "serioa": 4492,
      "paris": 4493,
      "asista": 4494,
      "##rală": 4495,
      "aşteap": 4496,
      "incerc": 4497,
      "fragme": 4498,
      "muntel": 4499,
      "dinain": 4500,
      "##-l": 4501,
      "cupa": 4502,
      "sângel": 4503,
      "auzi": 4504,
      "(galer": 4505,
      "tur": 4506,
      "pescui": 4507,
      "găsim": 4508,
      "soluti": 4509,
      "trepta": 4510,
      "tablet": 4511,
      "##uțiile": 4512,
      "##et,": 4513,
      "window": 4514,
      "##15": 4515,
      "##rial": 4516,
      "fix": 4517,
      "ştii": 4518,
      "ue,": 4519,
      "taxe": 4520,
      "mărime": 4521,
      "aleg": 4522,
      "one": 4523,
      "52": 4524,
      "##ității": 4525,
      "##ionează": 4526,
      "##ințele": 4527,
      "colecţ": 4528,
      "her": 4529,
      "ati": 4530,
      "n.": 4531,
      "stadiu": 4532,
      "arad": 4533,
      "create": 4534,
      "garanț": 4535,
      "repart": 4536,
      "aflați": 4537,
      "v-am": 4538,
      "46": 4539,
      "interc": 4540,
      "##lia": 4541,
      "dormit": 4542,
      "ocupa": 4543,
      "călugă": 4544,
      "lipsă": 4545,
      "##dia": 4546,
      "##ze,": 4547,
      "deţine": 4548,
      "opinii": 4549,
      "avion": 4550,
      "criza": 4551,
      "vechiu": 4552,
      "birour": 4553,
      "domnil": 4554,
      "mini": 4555,
      "##unzătoa": 4556,
      "##uţii": 4557,
      "##ore": 4558,
      "vocea": 4559,
      "blogul": 4560,
      "haine": 4561,
      "esenţi": 4562,
      "regăsi": 4563,
      "##sia": 4564,
      "##entale": 4565,
      "##ule": 4566,
      "art": 4567,
      "blocat": 4568,
      "##19": 4569,
      "spuse": 4570,
      "##pii": 4571,
      "viorel": 4572,
      "pensiu": 4573,
      "##tit": 4574,
      "îndoia": 4575,
      "comerţ": 4576,
      "poetul": 4577,
      "##atie": 4578,
      "##ot": 4579,
      "marin": 4580,
      "##oară,": 4581,
      "țară,": 4582,
      "##dor": 4583,
      "##fica": 4584,
      "plăti": 4585,
      "do": 4586,
      "întins": 4587,
      "##ctive": 4588,
      "exploz": 4589,
      "vârful": 4590,
      "vânăto": 4591,
      "##ciu": 4592,
      "ti": 4593,
      "iubiri": 4594,
      "papa": 4595,
      "ten": 4596,
      "orei": 4597,
      "##ențe": 4598,
      "cumpar": 4599,
      "lungi": 4600,
      "##ați,": 4601,
      "ligii": 4602,
      "##jele": 4603,
      "##turile": 4604,
      "##ionale,": 4605,
      "oricât": 4606,
      "##urare": 4607,
      "stai": 4608,
      "primeș": 4609,
      "seară,": 4610,
      "sustin": 4611,
      "##izate": 4612,
      "##şa": 4613,
      "##zie": 4614,
      "gând": 4615,
      "iasă": 4616,
      "litere": 4617,
      "##ime": 4618,
      "fermie": 4619,
      "opinie": 4620,
      "cinste": 4621,
      "##dual": 4622,
      "##о": 4623,
      "##trul": 4624,
      "stimaț": 4625,
      "stratu": 4626,
      "micros": 4627,
      "mamă": 4628,
      "catoli": 4629,
      "discre": 4630,
      "##eţi": 4631,
      "sare": 4632,
      "##eam": 4633,
      "dovada": 4634,
      "mor": 4635,
      "perete": 4636,
      "seamă": 4637,
      "##ormă": 4638,
      "sărăci": 4639,
      "relate": 4640,
      "formel": 4641,
      "more": 4642,
      "##ld": 4643,
      "gri": 4644,
      "##mar": 4645,
      "cheie": 4646,
      "(nu": 4647,
      "##rafie": 4648,
      "firmă": 4649,
      "##dele": 4650,
      "trăim": 4651,
      "iaşi": 4652,
      "##țarea": 4653,
      "munte": 4654,
      "votulu": 4655,
      "retras": 4656,
      "casă,": 4657,
      "filmel": 4658,
      "lumino": 4659,
      "##ure": 4660,
      "websit": 4661,
      "##devăr": 4662,
      "dinspr": 4663,
      "clic": 4664,
      "puteti": 4665,
      "decret": 4666,
      "ambula": 4667,
      "neferi": 4668,
      "zâmbet": 4669,
      "util": 4670,
      "##și,": 4671,
      "##sităţii": 4672,
      "uz": 4673,
      "bătut": 4674,
      "ales,": 4675,
      "##eci": 4676,
      "temati": 4677,
      "mândri": 4678,
      "##taţi": 4679,
      "##á": 4680,
      "##teze": 4681,
      "noroc": 4682,
      "##cii,": 4683,
      "##ster": 4684,
      "ies": 4685,
      "sentin": 4686,
      "imunit": 4687,
      "##palul": 4688,
      "boală": 4689,
      "salvar": 4690,
      "##ibilă": 4691,
      "proast": 4692,
      "uman": 4693,
      "##tul,": 4694,
      "dj": 4695,
      "pa": 4696,
      "har": 4697,
      "versur": 4698,
      "dobrog": 4699,
      "##rdul": 4700,
      "##lo": 4701,
      "##%,": 4702,
      "me": 4703,
      "uităm": 4704,
      "iii": 4705,
      "regelu": 4706,
      "##mei": 4707,
      "ştim": 4708,
      "manier": 4709,
      "##zației": 4710,
      "metali": 4711,
      "non": 4712,
      "acelei": 4713,
      "(pe": 4714,
      "vântul": 4715,
      "##terea": 4716,
      "genero": 4717,
      "1000": 4718,
      "libere": 4719,
      "##lizarea": 4720,
      "băncil": 4721,
      "angaje": 4722,
      "##-mi": 4723,
      "târgul": 4724,
      "cadou": 4725,
      "##ează,": 4726,
      "hotărî": 4727,
      "##а": 4728,
      "iulia": 4729,
      "expedi": 4730,
      "##toria": 4731,
      "licenț": 4732,
      "efort": 4733,
      "##nce": 4734,
      "tatălu": 4735,
      "smartp": 4736,
      "reprod": 4737,
      "goluri": 4738,
      "locați": 4739,
      "zgomot": 4740,
      "luată": 4741,
      "capăt": 4742,
      "extrac": 4743,
      "defect": 4744,
      "volume": 4745,
      "##ici,": 4746,
      "afecți": 4747,
      "##mer": 4748,
      "reuniu": 4749,
      "reală": 4750,
      "recolt": 4751,
      "##ler": 4752,
      "sondaj": 4753,
      "consem": 4754,
      "##atică": 4755,
      "250": 4756,
      "fascin": 4757,
      "ţinut": 4758,
      "ignora": 4759,
      "oricân": 4760,
      "//": 4761,
      "##onic": 4762,
      "##urată": 4763,
      "băiat": 4764,
      "gustul": 4765,
      "75": 4766,
      "##60": 4767,
      "inovat": 4768,
      "cui": 4769,
      "fosta": 4770,
      "secole": 4771,
      "birou": 4772,
      "##entativ": 4773,
      "descar": 4774,
      "rog,": 4775,
      "##mate": 4776,
      "cadour": 4777,
      "stătea": 4778,
      "datore": 4779,
      "##arilor": 4780,
      "uleiul": 4781,
      "##24": 4782,
      "intreb": 4783,
      "rapoar": 4784,
      "##a.": 4785,
      "lesbie": 4786,
      "sine,": 4787,
      "maestr": 4788,
      "lege,": 4789,
      "deținu": 4790,
      "##ap": 4791,
      "##entate": 4792,
      "100%": 4793,
      "trump": 4794,
      "codulu": 4795,
      "provoa": 4796,
      "##ș,": 4797,
      "(4": 4798,
      "desfii": 4799,
      "înclin": 4800,
      "##01": 4801,
      "##nţă,": 4802,
      "legii,": 4803,
      "carol": 4804,
      "vreme,": 4805,
      "##ş,": 4806,
      "buleva": 4807,
      "##tere": 4808,
      "semnăt": 4809,
      "prim-m": 4810,
      "##toriu": 4811,
      "##a-": 4812,
      "maximu": 4813,
      "fereas": 4814,
      "##entată": 4815,
      "120": 4816,
      "grea": 4817,
      "cărțil": 4818,
      "bruxel": 4819,
      "înlătu": 4820,
      "##fe": 4821,
      "atît": 4822,
      "sibiu,": 4823,
      "script": 4824,
      "tone": 4825,
      "64": 4826,
      "##pre": 4827,
      "modera": 4828,
      "nordul": 4829,
      "pret": 4830,
      "##cole": 4831,
      "alerga": 4832,
      "\"a": 4833,
      "##tu": 4834,
      "##piile": 4835,
      "gândea": 4836,
      "fire": 4837,
      "##enții": 4838,
      "##stic": 4839,
      "franţa": 4840,
      "delica": 4841,
      "erotic": 4842,
      "vechi,": 4843,
      "finala": 4844,
      "promit": 4845,
      "jucări": 4846,
      "trai": 4847,
      "fișier": 4848,
      "##ner": 4849,
      "centur": 4850,
      "##li,": 4851,
      "##aţiilor": 4852,
      "hunedo": 4853,
      "##que": 4854,
      "sora": 4855,
      "ediţia": 4856,
      "##eri,": 4857,
      "##tuționa": 4858,
      "vinde": 4859,
      "val": 4860,
      "##bi": 4861,
      "##entant": 4862,
      "##entantu": 4863,
      "chipul": 4864,
      "arata": 4865,
      "vorbă": 4866,
      "##nar": 4867,
      "slujit": 4868,
      "53": 4869,
      "băncii": 4870,
      "pragul": 4871,
      "##alități": 4872,
      "răbdar": 4873,
      "##iesc": 4874,
      "aerul": 4875,
      "##marea": 4876,
      "flexib": 4877,
      "##rant": 4878,
      "forţel": 4879,
      "faca": 4880,
      "mica": 4881,
      "##ctivă": 4882,
      "##ora": 4883,
      "superb": 4884,
      "actiun": 4885,
      "regia": 4886,
      "atesta": 4887,
      "umanit": 4888,
      "unică": 4889,
      "presei": 4890,
      "costă": 4891,
      "radica": 4892,
      "conexi": 4893,
      "50%": 4894,
      "rusiei": 4895,
      "##amental": 4896,
      "asumat": 4897,
      "##pala": 4898,
      "creasc": 4899,
      "##fia": 4900,
      "(5": 4901,
      "##itive": 4902,
      "bune,": 4903,
      "astept": 4904,
      "floare": 4905,
      "psihic": 4906,
      "##oc": 4907,
      "##edia": 4908,
      "progno": 4909,
      "tumblr": 4910,
      "##atia": 4911,
      "drag": 4912,
      "##i.": 4913,
      "junior": 4914,
      "înfrân": 4915,
      "dragi": 4916,
      "emoțio": 4917,
      "variat": 4918,
      "7,": 4919,
      "##tori,": 4920,
      "adunăr": 4921,
      "oareca": 4922,
      "curții": 4923,
      "piata": 4924,
      "maşină": 4925,
      "deţinu": 4926,
      "butonu": 4927,
      "lase": 4928,
      "##ismul": 4929,
      "##enți": 4930,
      "depășe": 4931,
      "linii": 4932,
      "scurte": 4933,
      "i-ar": 4934,
      "atent": 4935,
      "apară": 4936,
      "air": 4937,
      "reţinu": 4938,
      "##cați": 4939,
      "2004": 4940,
      "kg": 4941,
      "##u:": 4942,
      "meteor": 4943,
      "##inistru": 4944,
      "##ețe": 4945,
      "unirii": 4946,
      "sec": 4947,
      "mihael": 4948,
      "##şi,": 4949,
      "esteti": 4950,
      "austra": 4951,
      "54": 4952,
      "##sitar": 4953,
      "națiun": 4954,
      "rar": 4955,
      "învier": 4956,
      "giurgi": 4957,
      "indemn": 4958,
      "2005": 4959,
      "marţi": 4960,
      "trezit": 4961,
      "##turii": 4962,
      "##alităţi": 4963,
      "portug": 4964,
      "exclud": 4965,
      "matern": 4966,
      "click": 4967,
      "##mată": 4968,
      "##lează": 4969,
      "nuclea": 4970,
      "##siv": 4971,
      "major": 4972,
      "lac": 4973,
      "incint": 4974,
      "mărfur": 4975,
      "##dea": 4976,
      "tentat": 4977,
      "corupț": 4978,
      "cerul": 4979,
      "mergea": 4980,
      "întreţ": 4981,
      "făcut-": 4982,
      "îndelu": 4983,
      "găseşt": 4984,
      "preala": 4985,
      "##tica": 4986,
      "##ntare": 4987,
      "plasat": 4988,
      "uit": 4989,
      "sumele": 4990,
      "star": 4991,
      "tău,": 4992,
      "protop": 4993,
      "ecran": 4994,
      "##ers": 4995,
      "penite": 4996,
      "##eanu": 4997,
      "10,": 4998,
      "detect": 4999,
      "presti": 5000,
      "##cum": 5001,
      "##iti": 5002,
      "##es,": 5003,
      "##up": 5004,
      "depres": 5005,
      "sună": 5006,
      "brazil": 5007,
      "##reze": 5008,
      "piaţă": 5009,
      "##torie": 5010,
      "pensie": 5011,
      "(5)": 5012,
      "aruncă": 5013,
      "49": 5014,
      "revolt": 5015,
      "##nti": 5016,
      "minune": 5017,
      "##ielilor": 5018,
      "trupel": 5019,
      "recipr": 5020,
      "agent": 5021,
      "viață,": 5022,
      "izolat": 5023,
      "2007,": 5024,
      "spaţii": 5025,
      "you": 5026,
      "don": 5027,
      "ac": 5028,
      "cerinţ": 5029,
      "a,": 5030,
      "strigă": 5031,
      "##so": 5032,
      "grupa": 5033,
      "##ciile": 5034,
      "pr": 5035,
      "piesel": 5036,
      "##iente": 5037,
      "simţi": 5038,
      "##ese": 5039,
      "pornir": 5040,
      "\"o": 5041,
      "##mă,": 5042,
      "știți": 5043,
      "mergi": 5044,
      "piesă": 5045,
      "8,": 5046,
      "##fică": 5047,
      "consac": 5048,
      "mișcăr": 5049,
      "excurs": 5050,
      "deceda": 5051,
      "amândo": 5052,
      "##onice": 5053,
      "discri": 5054,
      "polone": 5055,
      "fu": 5056,
      "##&abreve": 5057,
      "ceas": 5058,
      "ucenic": 5059,
      "v-a": 5060,
      "##ctele": 5061,
      "##16": 5062,
      "##lan": 5063,
      "mic,": 5064,
      "valoro": 5065,
      "zonei": 5066,
      "##țile": 5067,
      "scurt,": 5068,
      "##ili": 5069,
      "pantof": 5070,
      "cresc": 5071,
      "bogat": 5072,
      "##ăţile": 5073,
      "indică": 5074,
      "si-a": 5075,
      "ko": 5076,
      "interf": 5077,
      "##ași": 5078,
      "ofera": 5079,
      "##ţat": 5080,
      "usor": 5081,
      "ucis": 5082,
      "clasif": 5083,
      "##ivelor": 5084,
      "clasel": 5085,
      "topul": 5086,
      "operar": 5087,
      "abuz": 5088,
      "##ităţii": 5089,
      "rugat": 5090,
      "atract": 5091,
      "##din": 5092,
      "##af": 5093,
      "oriund": 5094,
      "gură": 5095,
      "##du": 5096,
      "totdea": 5097,
      "cosmet": 5098,
      "secţiu": 5099,
      "iubit": 5100,
      "ș": 5101,
      "revin": 5102,
      "##ficare": 5103,
      "bătăli": 5104,
      "fier": 5105,
      "##i;": 5106,
      "cocoș": 5107,
      "școlii": 5108,
      "##ung": 5109,
      "##23": 5110,
      "iphone": 5111,
      "dovezi": 5112,
      "##bru": 5113,
      "dureaz": 5114,
      "barbat": 5115,
      "##ifică": 5116,
      "##?”": 5117,
      "ultimă": 5118,
      "diabet": 5119,
      "##şii": 5120,
      "diacon": 5121,
      "confid": 5122,
      "rost": 5123,
      "părut": 5124,
      "##șii": 5125,
      "micul": 5126,
      "mamei": 5127,
      "##țiu": 5128,
      "##45": 5129,
      "##02": 5130,
      "fă": 5131,
      "variet": 5132,
      "##are:": 5133,
      "link-u": 5134,
      "lupte": 5135,
      "opoziț": 5136,
      "##13": 5137,
      "stele": 5138,
      "premia": 5139,
      "dictat": 5140,
      "venea": 5141,
      "insula": 5142,
      "##git": 5143,
      "##devăr,": 5144,
      "voce": 5145,
      "##e-": 5146,
      "##ariu": 5147,
      "##ae": 5148,
      "popor": 5149,
      "părțil": 5150,
      "tarife": 5151,
      "epoca": 5152,
      "bazat": 5153,
      "portoc": 5154,
      "##itiv": 5155,
      "taie": 5156,
      "înălți": 5157,
      "cj": 5158,
      "##ou": 5159,
      "man": 5160,
      "all": 5161,
      "fecioa": 5162,
      "aranja": 5163,
      "##ă)": 5164,
      "dezast": 5165,
      "der": 5166,
      "##iunii": 5167,
      "##şe": 5168,
      "##ific": 5169,
      "totalu": 5170,
      "criză": 5171,
      "##.ro,": 5172,
      "##ation": 5173,
      "renumi": 5174,
      "fundaţ": 5175,
      "server": 5176,
      "afișat": 5177,
      "##at-o": 5178,
      "alta,": 5179,
      "##@": 5180,
      "startu": 5181,
      "alina": 5182,
      "rău,": 5183,
      "răzvan": 5184,
      "d)": 5185,
      "supune": 5186,
      "(\"": 5187,
      "##gul": 5188,
      "mulţim": 5189,
      "##strată": 5190,
      "clasă": 5191,
      "##zo": 5192,
      "##ctelor": 5193,
      "ron": 5194,
      "antena": 5195,
      "##nge": 5196,
      "##ificare": 5197,
      "pop": 5198,
      "##une,": 5199,
      "\"în": 5200,
      "##unii": 5201,
      "mări": 5202,
      "##zația": 5203,
      "tratar": 5204,
      "vas": 5205,
      "##mente,": 5206,
      "800": 5207,
      "mac": 5208,
      "men": 5209,
      "##fice": 5210,
      "convoc": 5211,
      "furtun": 5212,
      "lu": 5213,
      "bol": 5214,
      "test": 5215,
      "##afia": 5216,
      "fa": 5217,
      "##l:": 5218,
      "simpat": 5219,
      "##izează": 5220,
      "matei": 5221,
      "prost": 5222,
      "##ional,": 5223,
      "compat": 5224,
      "supus": 5225,
      "ghid": 5226,
      "update": 5227,
      "spa": 5228,
      "##ăt": 5229,
      "##tat,": 5230,
      "castig": 5231,
      "romant": 5232,
      "sa-l": 5233,
      "kilogr": 5234,
      "sudul": 5235,
      "bijute": 5236,
      "spunân": 5237,
      "##bile,": 5238,
      "iulian": 5239,
      "probe": 5240,
      "##i-": 5241,
      "blocur": 5242,
      "samsun": 5243,
      "amănun": 5244,
      "##uală": 5245,
      "##oane": 5246,
      "##piu": 5247,
      "office": 5248,
      "cuptor": 5249,
      "##unzător": 5250,
      "##ame": 5251,
      "„un": 5252,
      "încasa": 5253,
      "##ndent": 5254,
      "##asă,": 5255,
      "##anele": 5256,
      "##sme": 5257,
      "minuni": 5258,
      "##oneze": 5259,
      "##ivi": 5260,
      "nea": 5261,
      "##ivă,": 5262,
      "cimiti": 5263,
      "compro": 5264,
      "înving": 5265,
      "dans": 5266,
      "dunăre": 5267,
      "##darea": 5268,
      "##anță": 5269,
      "folclo": 5270,
      "orches": 5271,
      "parint": 5272,
      "pics": 5273,
      "hidrat": 5274,
      "frică": 5275,
      "cauzel": 5276,
      "plece": 5277,
      "dublu": 5278,
      "##zații": 5279,
      "peleri": 5280,
      "înmatr": 5281,
      "montat": 5282,
      "##rizare": 5283,
      "##ților,": 5284,
      "legali": 5285,
      "cadre": 5286,
      "na": 5287,
      "mc": 5288,
      "##t-": 5289,
      "##șul": 5290,
      "majoră": 5291,
      "2-3": 5292,
      "om,": 5293,
      "pictor": 5294,
      "##oase,": 5295,
      "ionesc": 5296,
      "prahov": 5297,
      "e,": 5298,
      "parc": 5299,
      "world": 5300,
      "japoni": 5301,
      "incluz": 5302,
      "ţară,": 5303,
      "dulce": 5304,
      "sigur,": 5305,
      "pasul": 5306,
      "##ip": 5307,
      "tel": 5308,
      "firesc": 5309,
      "ţările": 5310,
      "zis:": 5311,
      "insule": 5312,
      "carmen": 5313,
      "„să": 5314,
      "##care,": 5315,
      "ă": 5316,
      "56": 5317,
      "vâlcea": 5318,
      "tulcea": 5319,
      "pi": 5320,
      "preot": 5321,
      "##tim": 5322,
      "despri": 5323,
      "vorbin": 5324,
      "androi": 5325,
      "##aşi": 5326,
      "cota": 5327,
      "marți,": 5328,
      "toții": 5329,
      "fantas": 5330,
      "lo": 5331,
      "##i”,": 5332,
      "ciocol": 5333,
      "patrul": 5334,
      "##olul": 5335,
      "recrut": 5336,
      "gest": 5337,
      "##uc": 5338,
      "##onal": 5339,
      "georgi": 5340,
      "##uu": 5341,
      "##strația": 5342,
      "anti-": 5343,
      "##e),": 5344,
      "##.com": 5345,
      "##alte": 5346,
      "strădu": 5347,
      "##he,": 5348,
      "reface": 5349,
      "##ó": 5350,
      "ajungâ": 5351,
      "bere": 5352,
      "##27": 5353,
      "ideolo": 5354,
      "##rială": 5355,
      "răsări": 5356,
      "##sm,": 5357,
      "##&": 5358,
      "drogur": 5359,
      "lumii,": 5360,
      "##tățirea": 5361,
      "vechim": 5362,
      "##rada": 5363,
      "##ll": 5364,
      "părăse": 5365,
      "mele,": 5366,
      "##ibilita": 5367,
      "##line": 5368,
      "(și": 5369,
      "##liu": 5370,
      "##late": 5371,
      "roma": 5372,
      "##ariile": 5373,
      "orasul": 5374,
      "recurs": 5375,
      "striga": 5376,
      "scăpat": 5377,
      "1.000": 5378,
      "servit": 5379,
      "ideile": 5380,
      "părţi": 5381,
      "##ks": 5382,
      "extras": 5383,
      "##iţiile": 5384,
      "##han": 5385,
      "##pt": 5386,
      "oglind": 5387,
      "evaluă": 5388,
      "trăieș": 5389,
      "soţia": 5390,
      "config": 5391,
      "„e": 5392,
      "căuta": 5393,
      "tata": 5394,
      "ape": 5395,
      "email": 5396,
      "aprobă": 5397,
      "inimă": 5398,
      "inunda": 5399,
      "desăvâ": 5400,
      "lansea": 5401,
      "##ft": 5402,
      "##nțele": 5403,
      "(mai": 5404,
      "##ula": 5405,
      "##dit": 5406,
      "faceţi": 5407,
      "plicti": 5408,
      "raionu": 5409,
      "##itori": 5410,
      "dur": 5411,
      "bio": 5412,
      "temă": 5413,
      "##her": 5414,
      "##28": 5415,
      "##zaţiei": 5416,
      "vedeți": 5417,
      "##dem": 5418,
      "ceai": 5419,
      "toate,": 5420,
      "vacanţ": 5421,
      "supăra": 5422,
      "olteni": 5423,
      "chinui": 5424,
      "hectar": 5425,
      "mal": 5426,
      "##с": 5427,
      "bacter": 5428,
      "maturi": 5429,
      "scăpa": 5430,
      "sugest": 5431,
      "##van": 5432,
      "săi,": 5433,
      "(„": 5434,
      "##los": 5435,
      "umplut": 5436,
      "avizul": 5437,
      "centen": 5438,
      "opţiun": 5439,
      "[…]": 5440,
      "##/2": 5441,
      "##sion": 5442,
      "gaz": 5443,
      "regene": 5444,
      "]": 5445,
      "(s": 5446,
      "##tuţiona": 5447,
      "##03": 5448,
      "##14": 5449,
      "bunul": 5450,
      "călin": 5451,
      "##ație,": 5452,
      "q": 5453,
      "simţit": 5454,
      "izbucn": 5455,
      "600": 5456,
      "##uţiile": 5457,
      "##uire": 5458,
      "s.c.": 5459,
      "up": 5460,
      "restit": 5461,
      "activă": 5462,
      "##zul": 5463,
      "##ţarea": 5464,
      "##.2": 5465,
      "##ela": 5466,
      "marţi,": 5467,
      "zborur": 5468,
      "##straţia": 5469,
      "##orturil": 5470,
      "ºi": 5471,
      "consis": 5472,
      "brand": 5473,
      "##ură,": 5474,
      "traged": 5475,
      "city": 5476,
      "muscul": 5477,
      "albe": 5478,
      "forța": 5479,
      "entită": 5480,
      "coloni": 5481,
      "##ls": 5482,
      "afle": 5483,
      "costa": 5484,
      "umple": 5485,
      "lăsând": 5486,
      "##giei": 5487,
      "moșten": 5488,
      "ușoară": 5489,
      "mediat": 5490,
      "suc": 5491,
      "reținu": 5492,
      "acelas": 5493,
      "##etul": 5494,
      "##vă,": 5495,
      "##a”,": 5496,
      "##șe": 5497,
      "nov,": 5498,
      "motoru": 5499,
      "sfătui": 5500,
      "subven": 5501,
      "berlin": 5502,
      "mi-e": 5503,
      "tu,": 5504,
      "amenzi": 5505,
      "bmw": 5506,
      "ajungi": 5507,
      "##ază,": 5508,
      "##ari,": 5509,
      "tre": 5510,
      "altora": 5511,
      "brut": 5512,
      "dezamă": 5513,
      "?i": 5514,
      "##wa": 5515,
      "aşa,": 5516,
      "icoane": 5517,
      "cartof": 5518,
      "neglij": 5519,
      "##uți": 5520,
      "##sante": 5521,
      "aud": 5522,
      "inflam": 5523,
      "##tament": 5524,
      "nouă,": 5525,
      "ge": 5526,
      "pastor": 5527,
      "experț": 5528,
      "unifor": 5529,
      "##âni,": 5530,
      "##ps": 5531,
      "(…)": 5532,
      "selecţ": 5533,
      "www.": 5534,
      "senzor": 5535,
      "##ff": 5536,
      "binele": 5537,
      "motoar": 5538,
      "limbi": 5539,
      "iarna": 5540,
      "strat": 5541,
      "nenumă": 5542,
      "##aturi": 5543,
      "figura": 5544,
      "gestiu": 5545,
      "acredi": 5546,
      "bogată": 5547,
      "acei": 5548,
      "with": 5549,
      "îndată": 5550,
      "greșit": 5551,
      "0232.2": 5552,
      "boc": 5553,
      "apucat": 5554,
      "##ator,": 5555,
      "lux": 5556,
      "furat": 5557,
      "##l-": 5558,
      "marelu": 5559,
      "ştiri": 5560,
      "##inirea": 5561,
      "sur": 5562,
      "portul": 5563,
      "mânca": 5564,
      "art.": 5565,
      "făceau": 5566,
      "tom": 5567,
      "insolv": 5568,
      "##ţile": 5569,
      "189": 5570,
      "ciclul": 5571,
      "gratis": 5572,
      "dunări": 5573,
      "ceară": 5574,
      "unuia": 5575,
      "##ța,": 5576,
      "##s.": 5577,
      "##ritate": 5578,
      "##sie": 5579,
      "deteri": 5580,
      "##da,": 5581,
      "noilor": 5582,
      "##net": 5583,
      "belgia": 5584,
      "ierusa": 5585,
      "zbor": 5586,
      "##lizate": 5587,
      "infecț": 5588,
      "localn": 5589,
      "##a),": 5590,
      "mării": 5591,
      "aceia": 5592,
      "ioana": 5593,
      "##rism": 5594,
      "dat,": 5595,
      "tricou": 5596,
      "piscin": 5597,
      "preoţi": 5598,
      "por": 5599,
      "emoții": 5600,
      "##sarea": 5601,
      "##tan": 5602,
      "b.": 5603,
      "articu": 5604,
      "##enței": 5605,
      "studie": 5606,
      "pieței": 5607,
      "big": 5608,
      "prescr": 5609,
      "tem": 5610,
      "genere": 5611,
      "ali": 5612,
      "##rdinar": 5613,
      "cauze": 5614,
      "##liul": 5615,
      "##anii": 5616,
      "trupa": 5617,
      "puteam": 5618,
      "\"nu": 5619,
      "local,": 5620,
      "scaune": 5621,
      "sf": 5622,
      "lot": 5623,
      "##uli": 5624,
      "show": 5625,
      "blocul": 5626,
      "##mo": 5627,
      "##natului": 5628,
      "năstas": 5629,
      "##ec": 5630,
      "bi": 5631,
      "##antul": 5632,
      "actulu": 5633,
      "inimii": 5634,
      "##ok,": 5635,
      "dâmbov": 5636,
      "del": 5637,
      "bunici": 5638,
      "ka": 5639,
      "##ționare": 5640,
      "omenir": 5641,
      "combus": 5642,
      "nato": 5643,
      "##31": 5644,
      "www": 5645,
      "umană": 5646,
      "##uțiilor": 5647,
      "(pentr": 5648,
      "ferest": 5649,
      ",,": 5650,
      "##-se": 5651,
      "turișt": 5652,
      "salva": 5653,
      "9,": 5654,
      "invoca": 5655,
      "##port": 5656,
      "deseor": 5657,
      "##tivă,": 5658,
      "puţine": 5659,
      "##ver": 5660,
      "##iunilor": 5661,
      "canale": 5662,
      "##aţi,": 5663,
      "##nii,": 5664,
      "tvr": 5665,
      "portal": 5666,
      "aspira": 5667,
      "donald": 5668,
      "er": 5669,
      "via": 5670,
      "bar": 5671,
      "ochiul": 5672,
      "adjunc": 5673,
      "\"e": 5674,
      "pri": 5675,
      "##asca": 5676,
      "merita": 5677,
      "##eli": 5678,
      "silvic": 5679,
      "##selor": 5680,
      "viaţă,": 5681,
      "astazi": 5682,
      "pl": 5683,
      "―": 5684,
      "latera": 5685,
      "dl": 5686,
      "turişt": 5687,
      "cost": 5688,
      "clarif": 5689,
      "define": 5690,
      "sectoa": 5691,
      "ieșire": 5692,
      "asfalt": 5693,
      "suvera": 5694,
      "n-ai": 5695,
      "vulner": 5696,
      "martin": 5697,
      "##vântare": 5698,
      "##17": 5699,
      "vostru": 5700,
      "##j,": 5701,
      "pieton": 5702,
      "rezona": 5703,
      "##33": 5704,
      "rusia,": 5705,
      "filozo": 5706,
      "invers": 5707,
      "##t.": 5708,
      "##ble": 5709,
      "adauga": 5710,
      "##у": 5711,
      "##asi": 5712,
      "ec": 5713,
      "texte": 5714,
      "##eședint": 5715,
      "tabere": 5716,
      "start": 5717,
      "moşten": 5718,
      "##itare": 5719,
      "insufi": 5720,
      "57": 5721,
      "##29": 5722,
      "##nice": 5723,
      "york": 5724,
      "link": 5725,
      "##ână,": 5726,
      "ieși": 5727,
      "tipări": 5728,
      "##enție": 5729,
      "##unde": 5730,
      "sursel": 5731,
      "58": 5732,
      "mass-m": 5733,
      "degete": 5734,
      "curaju": 5735,
      "capete": 5736,
      "postar": 5737,
      "##entară": 5738,
      "cade": 5739,
      "acid": 5740,
      "##tari": 5741,
      "vecini": 5742,
      "str.": 5743,
      "pantal": 5744,
      "curăța": 5745,
      "news": 5746,
      "manevr": 5747,
      "ip": 5748,
      "numire": 5749,
      "##pi": 5750,
      "intrăr": 5751,
      "clubur": 5752,
      "minutu": 5753,
      "dimpot": 5754,
      "##ații,": 5755,
      "numeșt": 5756,
      "formal": 5757,
      "##scă,": 5758,
      "poveşt": 5759,
      "posesi": 5760,
      "v.": 5761,
      "##sti,": 5762,
      "\"de": 5763,
      "frica": 5764,
      "arme": 5765,
      "10%": 5766,
      "##tiei": 5767,
      "actoru": 5768,
      "##tică,": 5769,
      "patra": 5770,
      "##ola": 5771,
      "aerien": 5772,
      "terape": 5773,
      "##neze": 5774,
      "urechi": 5775,
      "trecem": 5776,
      "antone": 5777,
      "stagiu": 5778,
      "vând": 5779,
      "##ături": 5780,
      "laptop": 5781,
      "##isă": 5782,
      "geneti": 5783,
      "##uare,": 5784,
      "prelim": 5785,
      "go": 5786,
      "testat": 5787,
      "interd": 5788,
      "genunc": 5789,
      "intamp": 5790,
      "supun": 5791,
      "ăla": 5792,
      "##gen": 5793,
      "egal": 5794,
      "trenul": 5795,
      "##rhul": 5796,
      "tradus": 5797,
      "trăias": 5798,
      "esti": 5799,
      "tari": 5800,
      "saptam": 5801,
      "liceu": 5802,
      "predar": 5803,
      "apele": 5804,
      "anglia": 5805,
      "utile": 5806,
      "cuantu": 5807,
      "luați": 5808,
      "##per": 5809,
      "medita": 5810,
      "ad": 5811,
      "##oft": 5812,
      "căi": 5813,
      "##inată": 5814,
      "var": 5815,
      "aviz": 5816,
      "##apoca": 5817,
      "voi,": 5818,
      "creeze": 5819,
      "popa": 5820,
      "feluri": 5821,
      "card": 5822,
      "##catul": 5823,
      "sigură": 5824,
      "veti": 5825,
      "180": 5826,
      "##fi": 5827,
      "##r:": 5828,
      "coreea": 5829,
      "eroare": 5830,
      "căpita": 5831,
      "aflau": 5832,
      "##rizarea": 5833,
      "invata": 5834,
      "dieta": 5835,
      "ritmul": 5836,
      "##f,": 5837,
      "tv,": 5838,
      "##iste": 5839,
      "##ntă,": 5840,
      "para": 5841,
      "floril": 5842,
      "##tive,": 5843,
      "ponder": 5844,
      "62": 5845,
      "roșu": 5846,
      "joace": 5847,
      "##ida": 5848,
      "licenţ": 5849,
      "găsiți": 5850,
      "##ficate": 5851,
      "”a": 5852,
      "ben": 5853,
      "norveg": 5854,
      "evacua": 5855,
      "##70": 5856,
      "##.1": 5857,
      "##şul": 5858,
      "iaşi,": 5859,
      "##b,": 5860,
      "lunar": 5861,
      "înceap": 5862,
      "luca": 5863,
      "##nilor,": 5864,
      "##rmă": 5865,
      "artişt": 5866,
      "mit": 5867,
      "##nse": 5868,
      "incepe": 5869,
      "sunt:": 5870,
      "scară": 5871,
      "##mii": 5872,
      "##ila": 5873,
      "expira": 5874,
      "rețeau": 5875,
      "##icată": 5876,
      "##sate": 5877,
      "vinuri": 5878,
      "necons": 5879,
      "sălbat": 5880,
      "langa": 5881,
      "cristo": 5882,
      "dotări": 5883,
      "bre": 5884,
      "##arelor": 5885,
      "teoria": 5886,
      "privea": 5887,
      "##bia": 5888,
      "focul": 5889,
      "recept": 5890,
      "adoptă": 5891,
      "sugere": 5892,
      "##000": 5893,
      "ofertă": 5894,
      "##ițiilor": 5895,
      "##ăților": 5896,
      "##ger": 5897,
      "ps": 5898,
      "crema": 5899,
      "##oniului": 5900,
      "soarta": 5901,
      "adam": 5902,
      "placut": 5903,
      "infini": 5904,
      "textel": 5905,
      "##09": 5906,
      "##sh": 5907,
      "ie": 5908,
      "if": 5909,
      "##ență,": 5910,
      "##ioniști": 5911,
      "slab": 5912,
      "„ca": 5913,
      "alex": 5914,
      "îmbogă": 5915,
      "puncta": 5916,
      "##55": 5917,
      "##ct,": 5918,
      "sanata": 5919,
      "afecţi": 5920,
      "zise": 5921,
      "scot": 5922,
      "rusă": 5923,
      "legatu": 5924,
      "##uţi": 5925,
      "cursa": 5926,
      "##aște": 5927,
      "##litate,": 5928,
      "##logie": 5929,
      "188": 5930,
      "##90": 5931,
      "stan": 5932,
      "număra": 5933,
      "les": 5934,
      "irland": 5935,
      "##rivă,": 5936,
      "##lina": 5937,
      "ii-lea": 5938,
      "paris,": 5939,
      "așezat": 5940,
      "știri": 5941,
      "ras": 5942,
      "io": 5943,
      "gar": 5944,
      "execuț": 5945,
      "(se": 5946,
      "delici": 5947,
      "muceni": 5948,
      "naţiun": 5949,
      "bara": 5950,
      "flutur": 5951,
      "61": 5952,
      "##mântulu": 5953,
      "##buție": 5954,
      "lumea,": 5955,
      "pornin": 5956,
      "adi": 5957,
      "excesi": 5958,
      "femeii": 5959,
      "##uale": 5960,
      "audio": 5961,
      "buc": 5962,
      "##‑": 5963,
      "etape": 5964,
      "plăcea": 5965,
      "2003": 5966,
      "îngeri": 5967,
      "##u-": 5968,
      "##ialul": 5969,
      "imens": 5970,
      "##entare,": 5971,
      "tren": 5972,
      "##idarea": 5973,
      "abonam": 5974,
      "adresă": 5975,
      "popoar": 5976,
      "impuls": 5977,
      "albumu": 5978,
      "##49": 5979,
      "valida": 5980,
      "##răm": 5981,
      "##jo": 5982,
      "aerian": 5983,
      "##!”,": 5984,
      "my": 5985,
      "##26": 5986,
      "##men": 5987,
      "##ciat": 5988,
      "##o-": 5989,
      "##tel": 5990,
      "sperăm": 5991,
      "cardio": 5992,
      "intaln": 5993,
      "graniț": 5994,
      "desfas": 5995,
      "grele": 5996,
      "debito": 5997,
      "66": 5998,
      "uni": 5999,
      "memora": 6000,
      "20%": 6001,
      "turul": 6002,
      "treabă": 6003,
      "##duale": 6004,
      "amelio": 6005,
      "##oa": 6006,
      "crista": 6007,
      "orașe": 6008,
      "##gice": 6009,
      "notă": 6010,
      "joculu": 6011,
      "hainel": 6012,
      "jo": 6013,
      "aprins": 6014,
      "mormân": 6015,
      "##abilita": 6016,
      "(n.": 6017,
      "depăşe": 6018,
      "cântat": 6019,
      "marilo": 6020,
      "forest": 6021,
      "gândim": 6022,
      "##ros": 6023,
      "3d": 6024,
      "##us,": 6025,
      "probel": 6026,
      "##ânii": 6027,
      "##sare": 6028,
      "nefiin": 6029,
      "nebuni": 6030,
      "forumu": 6031,
      "##car": 6032,
      "##ny": 6033,
      "os": 6034,
      "împărţ": 6035,
      "##rdele": 6036,
      "aurel": 6037,
      "##mis": 6038,
      "refer": 6039,
      "marine": 6040,
      "##ental": 6041,
      "##eti": 6042,
      "clipur": 6043,
      "##e\"": 6044,
      "verbal": 6045,
      "leagă": 6046,
      "învață": 6047,
      "gasit": 6048,
      "exager": 6049,
      "72": 6050,
      "##zație": 6051,
      "##olitul": 6052,
      "##nd,": 6053,
      "srl,": 6054,
      "moneta": 6055,
      "##â": 6056,
      "forță": 6057,
      "hormon": 6058,
      "daruri": 6059,
      "##'s": 6060,
      "##ţa,": 6061,
      "citeşt": 6062,
      "##ătorulu": 6063,
      "alegi": 6064,
      "însărc": 6065,
      "servi": 6066,
      "##80": 6067,
      "##und": 6068,
      "adormi": 6069,
      "mică,": 6070,
      "aglome": 6071,
      "(6": 6072,
      "##05": 6073,
      "tolera": 6074,
      "eparhi": 6075,
      "(200": 6076,
      "scaunu": 6077,
      "finale": 6078,
      "cădere": 6079,
      "album": 6080,
      "##ierul": 6081,
      "soldat": 6082,
      "##í": 6083,
      "statui": 6084,
      "##ram": 6085,
      "##42": 6086,
      "##cție": 6087,
      "ton": 6088,
      "portre": 6089,
      "antoni": 6090,
      "##ița": 6091,
      "##lină": 6092,
      "irina": 6093,
      "##sați": 6094,
      "urbani": 6095,
      "apple": 6096,
      "a.c.,": 6097,
      "##ten": 6098,
      "vedete": 6099,
      "63": 6100,
      "monica": 6101,
      "intru": 6102,
      "eco": 6103,
      "return": 6104,
      "semi": 6105,
      "podul": 6106,
      "rețea": 6107,
      "munten": 6108,
      "și/sau": 6109,
      "dimitr": 6110,
      "##ptă": 6111,
      "##ltură": 6112,
      "##ide": 6113,
      "cert": 6114,
      "curţii": 6115,
      "cărţil": 6116,
      "##tant": 6117,
      "horia": 6118,
      "##ena": 6119,
      "calori": 6120,
      "doctri": 6121,
      "adult": 6122,
      "10.000": 6123,
      "##/0": 6124,
      "lună,": 6125,
      "scene": 6126,
      "##nirea": 6127,
      "canali": 6128,
      "recenz": 6129,
      "şcolii": 6130,
      "diavol": 6131,
      "primeş": 6132,
      "preajm": 6133,
      "##alei": 6134,
      "avand": 6135,
      "sponso": 6136,
      "cutie": 6137,
      "clipă": 6138,
      "##cului": 6139,
      "sebast": 6140,
      "târgov": 6141,
      "încăpe": 6142,
      "bacala": 6143,
      "##ane,": 6144,
      "ecranu": 6145,
      "oarecu": 6146,
      "riscă": 6147,
      "liber,": 6148,
      "lumi": 6149,
      "##ătate,": 6150,
      "##țe,": 6151,
      "##îr": 6152,
      "##sit": 6153,
      "sar": 6154,
      "părţil": 6155,
      "##35": 6156,
      "##04": 6157,
      "##sal": 6158,
      "nu-și": 6159,
      "demult": 6160,
      "creată": 6161,
      "##iști": 6162,
      "corupţ": 6163,
      "##rta": 6164,
      "f.": 6165,
      "arad,": 6166,
      "mobilă": 6167,
      "carte,": 6168,
      "die": 6169,
      "ofițer": 6170,
      "##teri": 6171,
      "templu": 6172,
      "decurs": 6173,
      "##cent": 6174,
      "doc": 6175,
      "cuplu": 6176,
      "viu": 6177,
      "deșeur": 6178,
      "handic": 6179,
      "incapa": 6180,
      "##u-i": 6181,
      "g.": 6182,
      "modest": 6183,
      "dobânz": 6184,
      "teamă": 6185,
      "pdl": 6186,
      "##ht": 6187,
      "michae": 6188,
      "împart": 6189,
      "##41": 6190,
      "handba": 6191,
      "##po": 6192,
      "puțini": 6193,
      "parția": 6194,
      "##bo": 6195,
      "senzaţ": 6196,
      "pod": 6197,
      "##lin": 6198,
      "##ys": 6199,
      "unit": 6200,
      "##enţe": 6201,
      "aflaţi": 6202,
      "##zatorii": 6203,
      "aveti": 6204,
      "##itie": 6205,
      "viteze": 6206,
      "rock": 6207,
      "șanse": 6208,
      "smart": 6209,
      "##iţiilor": 6210,
      "mişcăr": 6211,
      "(e": 6212,
      "##ova": 6213,
      "buleti": 6214,
      "##06": 6215,
      "expuse": 6216,
      "ve": 6217,
      "pă": 6218,
      "dacia": 6219,
      "aducem": 6220,
      "##tografi": 6221,
      "colind": 6222,
      "##inare": 6223,
      "##cții": 6224,
      "##apoca,": 6225,
      "##ăminte": 6226,
      "nedrep": 6227,
      "##):": 6228,
      "##icative": 6229,
      "##ju": 6230,
      "##orta": 6231,
      "întrec": 6232,
      "(...)": 6233,
      "„cu": 6234,
      "machia": 6235,
      "##32": 6236,
      "sosit": 6237,
      "despăg": 6238,
      "##nat,": 6239,
      "sunat": 6240,
      "debutu": 6241,
      "##aș": 6242,
      "reorga": 6243,
      "nenoro": 6244,
      "mirosu": 6245,
      "emise": 6246,
      "suceve": 6247,
      "teleco": 6248,
      "##for": 6249,
      "indice": 6250,
      "liniil": 6251,
      "hot": 6252,
      "59": 6253,
      "##oo": 6254,
      "(in": 6255,
      "inutil": 6256,
      "metrou": 6257,
      "pc": 6258,
      "dizabi": 6259,
      "cipria": 6260,
      "mese": 6261,
      "microb": 6262,
      "aşezat": 6263,
      "##/a": 6264,
      "pen": 6265,
      "ritual": 6266,
      "asimil": 6267,
      "cai": 6268,
      "durero": 6269,
      "fiului": 6270,
      "(ca": 6271,
      "triste": 6272,
      "face,": 6273,
      "pedago": 6274,
      "co": 6275,
      "##75": 6276,
      "vrance": 6277,
      "copil,": 6278,
      "lauren": 6279,
      "veste": 6280,
      "187": 6281,
      "##țelor": 6282,
      "##lități": 6283,
      "mediu,": 6284,
      "copaci": 6285,
      "văzând": 6286,
      "brăila": 6287,
      "ultra": 6288,
      "durat": 6289,
      "he": 6290,
      "somn": 6291,
      "##ăm,": 6292,
      "##ională,": 6293,
      "veteri": 6294,
      "muri": 6295,
      "ofiţer": 6296,
      "##ms": 6297,
      "jean": 6298,
      "##su": 6299,
      "ul": 6300,
      "moduri": 6301,
      "laptel": 6302,
      "geo": 6303,
      "confis": 6304,
      "apelor": 6305,
      "regina": 6306,
      "s.a.": 6307,
      "67": 6308,
      "alin": 6309,
      "scaun": 6310,
      "marche": 6311,
      "##dar": 6312,
      "degrad": 6313,
      "recomp": 6314,
      "parame": 6315,
      "##riilor": 6316,
      "impuse": 6317,
      "spatiu": 6318,
      "##ante,": 6319,
      "(un": 6320,
      "mark": 6321,
      "##eţe": 6322,
      "prime": 6323,
      "stării": 6324,
      "eli": 6325,
      "cald": 6326,
      "##olit": 6327,
      "2006,": 6328,
      "aerulu": 6329,
      "ploaie": 6330,
      "##lilor": 6331,
      "##ologie": 6332,
      "fan": 6333,
      "slujbe": 6334,
      "tranda": 6335,
      "adânc": 6336,
      "life": 6337,
      "predat": 6338,
      "aerona": 6339,
      "##ful": 6340,
      "specie": 6341,
      "ajutoa": 6342,
      "##»,": 6343,
      "##liști": 6344,
      "carnea": 6345,
      "##tră": 6346,
      "greu,": 6347,
      "nemulț": 6348,
      "##ucții": 6349,
      "perche": 6350,
      "iosif": 6351,
      "foi": 6352,
      "plenul": 6353,
      "masă,": 6354,
      "##inere": 6355,
      "##cian": 6356,
      "minime": 6357,
      "##etar": 6358,
      "##mai": 6359,
      "păcat": 6360,
      "##scute": 6361,
      "obtine": 6362,
      "##ismului": 6363,
      "si,": 6364,
      "vioric": 6365,
      "școli": 6366,
      "abanos": 6367,
      "urca": 6368,
      "alianț": 6369,
      "3.": 6370,
      "##uție": 6371,
      "coroan": 6372,
      "##zaţia": 6373,
      "călăra": 6374,
      "##ă;": 6375,
      "##ucție": 6376,
      "fals": 6377,
      "##nați": 6378,
      "inseam": 6379,
      "refuză": 6380,
      "##inate": 6381,
      "##48": 6382,
      "cavale": 6383,
      "rotund": 6384,
      "##r.": 6385,
      "sport,": 6386,
      "##n-": 6387,
      "rele": 6388,
      "cîteva": 6389,
      "cap,": 6390,
      "##orat": 6391,
      "##\\\\": 6392,
      "1.": 6393,
      "##ey": 6394,
      "willia": 6395,
      "bal": 6396,
      "except": 6397,
      "zahăr": 6398,
      "##52": 6399,
      "##ing,": 6400,
      "teste": 6401,
      "laura": 6402,
      "ku": 6403,
      "##ă”,": 6404,
      "##lla": 6405,
      "neregu": 6406,
      "piept": 6407,
      "confuz": 6408,
      "##tã": 6409,
      "##orit": 6410,
      "lingvi": 6411,
      "tar": 6412,
      "harta": 6413,
      "poezia": 6414,
      "tor": 6415,
      "##ețea": 6416,
      "##den": 6417,
      "dura": 6418,
      "insera": 6419,
      "##aților": 6420,
      "##aş": 6421,
      "pași": 6422,
      "băiatu": 6423,
      "unite,": 6424,
      "scria": 6425,
      "##nici": 6426,
      "atât,": 6427,
      "##.a": 6428,
      "dotare": 6429,
      "##ex": 6430,
      "niste": 6431,
      "##ţe,": 6432,
      "opta": 6433,
      "##pro": 6434,
      "##rului,": 6435,
      "##eva": 6436,
      "legilo": 6437,
      "testar": 6438,
      "##țată": 6439,
      "marina": 6440,
      "canalu": 6441,
      "##enţi": 6442,
      "atacul": 6443,
      "praf": 6444,
      "îndemâ": 6445,
      "variab": 6446,
      "sa-i": 6447,
      "masina": 6448,
      "bunicu": 6449,
      "treime": 6450,
      "group": 6451,
      "##58": 6452,
      "comedi": 6453,
      "nunta": 6454,
      "crucea": 6455,
      "cheamă": 6456,
      "spălat": 6457,
      "desena": 6458,
      "ex": 6459,
      "gu": 6460,
      "##я": 6461,
      "sporit": 6462,
      "##âr": 6463,
      "69": 6464,
      "arhiva": 6465,
      "##nţele": 6466,
      "avioan": 6467,
      "captur": 6468,
      "sfatul": 6469,
      "##s)": 6470,
      "dracul": 6471,
      "bazate": 6472,
      "știut": 6473,
      "relata": 6474,
      "##ker": 6475,
      "##ințitul": 6476,
      "„ce": 6477,
      "alatur": 6478,
      "##rări": 6479,
      "dați": 6480,
      "mu": 6481,
      "(ce": 6482,
      "banilo": 6483,
      "soțul": 6484,
      "roluri": 6485,
      "bacău": 6486,
      "##ho": 6487,
      "trăieş": 6488,
      "bazată": 6489,
      "--": 6490,
      "zăpadă": 6491,
      "##ucția": 6492,
      "falime": 6493,
      "decisi": 6494,
      "imigra": 6495,
      "##ogică": 6496,
      "186": 6497,
      "„sfânt": 6498,
      "unice": 6499,
      "„este": 6500,
      "##ard": 6501,
      "we": 6502,
      "01": 6503,
      "cal": 6504,
      "2002": 6505,
      "operă": 6506,
      "altul,": 6507,
      "lea": 6508,
      "teorie": 6509,
      "după-a": 6510,
      "amuzan": 6511,
      "##bili": 6512,
      "promoț": 6513,
      "##stări": 6514,
      "##onar": 6515,
      "privil": 6516,
      "luptat": 6517,
      "##ud": 6518,
      "sud-es": 6519,
      "copie": 6520,
      "##itudine": 6521,
      "##udine": 6522,
      "supuse": 6523,
      "##log": 6524,
      "##istă": 6525,
      "făcut,": 6526,
      "##entăril": 6527,
      "conces": 6528,
      "lemn,": 6529,
      "mâncat": 6530,
      "scoase": 6531,
      "##bar": 6532,
      "anular": 6533,
      "##itorul": 6534,
      "##ogiei": 6535,
      "vertic": 6536,
      "anuale": 6537,
      "##34": 6538,
      "##-vă": 6539,
      "##oarele": 6540,
      "##oasă,": 6541,
      "vânzăt": 6542,
      "lăsăm": 6543,
      "##gan": 6544,
      "cla": 6545,
      "veşnic": 6546,
      "##ionist": 6547,
      "##init": 6548,
      "filmat": 6549,
      "turnul": 6550,
      "pahar": 6551,
      "##ţiu": 6552,
      "uimito": 6553,
      "unitar": 6554,
      "##à": 6555,
      "taxele": 6556,
      "##95": 6557,
      "verzi": 6558,
      "neplăc": 6559,
      "##va,": 6560,
      "##cut": 6561,
      "stomac": 6562,
      "scade": 6563,
      "##-le": 6564,
      "pula": 6565,
      "redusă": 6566,
      "##ctiv": 6567,
      "71": 6568,
      "##orilor,": 6569,
      "“o": 6570,
      "aflu": 6571,
      "##ep": 6572,
      "clară": 6573,
      "nă": 6574,
      "##en,": 6575,
      "„ne": 6576,
      "nr.2": 6577,
      "##inţele": 6578,
      "păcatu": 6579,
      "(7": 6580,
      "unu": 6581,
      "fir": 6582,
      "##larea": 6583,
      "##?i": 6584,
      "76": 6585,
      "actelo": 6586,
      "bănci": 6587,
      "audien": 6588,
      "ob": 6589,
      "testam": 6590,
      "venire": 6591,
      "##lant": 6592,
      "nord,": 6593,
      "##șă": 6594,
      "je": 6595,
      "##rile,": 6596,
      "##08": 6597,
      "mar": 6598,
      "##ah": 6599,
      "rafina": 6600,
      "##itarea": 6601,
      "fiinţe": 6602,
      "visul": 6603,
      "##ting": 6604,
      "tăi": 6605,
      "şi/sau": 6606,
      "##ris": 6607,
      "ze": 6608,
      "acesti": 6609,
      "rectif": 6610,
      "ram": 6611,
      "forţă": 6612,
      "albi": 6613,
      "bandă": 6614,
      "paradi": 6615,
      "lacul": 6616,
      "##iţa": 6617,
      "tenis": 6618,
      "sfera": 6619,
      "musulm": 6620,
      "reuși": 6621,
      "proviz": 6622,
      "farmec": 6623,
      "##zat,": 6624,
      "ocroti": 6625,
      "##ctură": 6626,
      "știam": 6627,
      "arie": 6628,
      "ja": 6629,
      "##toarea": 6630,
      "##tata": 6631,
      "##ero": 6632,
      "12,": 6633,
      "gândeș": 6634,
      "capătu": 6635,
      "##zor": 6636,
      "oi": 6637,
      "ştia": 6638,
      "trăsăt": 6639,
      "cad": 6640,
      "înălţi": 6641,
      "păi": 6642,
      "fundal": 6643,
      "##iștii": 6644,
      "hotara": 6645,
      "rai": 6646,
      "tru": 6647,
      "##mp": 6648,
      "11,": 6649,
      "##uţiilor": 6650,
      "##erăm": 6651,
      "unora": 6652,
      "mi-ar": 6653,
      "socote": 6654,
      "metabo": 6655,
      "chef": 6656,
      "##niei": 6657,
      "##izare,": 6658,
      "rochie": 6659,
      "gala": 6660,
      "banda": 6661,
      "##rindere": 6662,
      "not": 6663,
      "iliesc": 6664,
      "##ipanții": 6665,
      "micro": 6666,
      "ieşire": 6667,
      "##rme": 6668,
      "##isit": 6669,
      "##lizată": 6670,
      "##gu": 6671,
      "bogate": 6672,
      "##hai": 6673,
      "înmorm": 6674,
      "##ã,": 6675,
      "##zare,": 6676,
      "stocar": 6677,
      "##44": 6678,
      "emisii": 6679,
      "##zaţii": 6680,
      "us": 6681,
      "zero": 6682,
      "numesc": 6683,
      "(pre": 6684,
      "##oniul": 6685,
      "ra": 6686,
      "##ist,": 6687,
      "râmnic": 6688,
      "bucată": 6689,
      "indire": 6690,
      "alese": 6691,
      "mâini": 6692,
      "simtă": 6693,
      "77": 6694,
      "##onate": 6695,
      "concor": 6696,
      "femei,": 6697,
      "obosit": 6698,
      "1989": 6699,
      "vârf": 6700,
      "##tea,": 6701,
      "ritm": 6702,
      "##ţelor": 6703,
      "miros": 6704,
      "forţa": 6705,
      "gasi": 6706,
      "##43": 6707,
      "acuzaț": 6708,
      "ber": 6709,
      "alde": 6710,
      "pauză": 6711,
      "cupei": 6712,
      "##enţei": 6713,
      "domnit": 6714,
      "##88": 6715,
      "organu": 6716,
      "##enţie": 6717,
      "gravă": 6718,
      "invit": 6719,
      "tăiat": 6720,
      "##39": 6721,
      "##alizare": 6722,
      "##iterea": 6723,
      "pra": 6724,
      "parţia": 6725,
      "edific": 6726,
      "astron": 6727,
      "emiter": 6728,
      "##etarul": 6729,
      "tot,": 6730,
      "spus:": 6731,
      "##ajele": 6732,
      "lasa": 6733,
      "initia": 6734,
      "bob": 6735,
      "##lturii": 6736,
      "șoferi": 6737,
      "abține": 6738,
      "##-am": 6739,
      "##ow": 6740,
      "roz": 6741,
      "##ä": 6742,
      "făcuse": 6743,
      "(6)": 6744,
      "1990": 6745,
      "@": 6746,
      "diana": 6747,
      "73": 6748,
      "##-e": 6749,
      "##tivitat": 6750,
      "avionu": 6751,
      "toma": 6752,
      "prăjit": 6753,
      "##rh": 6754,
      "85": 6755,
      "dăncil": 6756,
      "stinge": 6757,
      "ipotez": 6758,
      "mediev": 6759,
      "tramva": 6760,
      "##sen": 6761,
      "sun": 6762,
      "latina": 6763,
      "ars": 6764,
      "„pe": 6765,
      "atenti": 6766,
      "aderar": 6767,
      "alunec": 6768,
      "##xi": 6769,
      "red": 6770,
      "im": 6771,
      "bat": 6772,
      "tăcere": 6773,
      "extra": 6774,
      "(i": 6775,
      "##țiuni": 6776,
      "înalta": 6777,
      "scoată": 6778,
      "miron": 6779,
      "față,": 6780,
      "toader": 6781,
      "74": 6782,
      "“a": 6783,
      "bazele": 6784,
      "n-are": 6785,
      "##du-se": 6786,
      "ok": 6787,
      "l-ar": 6788,
      "##imi": 6789,
      "pâine": 6790,
      "benzin": 6791,
      "ver": 6792,
      "sintet": 6793,
      "1,5": 6794,
      "neputi": 6795,
      "douăze": 6796,
      "urmată": 6797,
      "semifi": 6798,
      "poet": 6799,
      "hramul": 6800,
      "autor:": 6801,
      "##tatea,": 6802,
      "vecină": 6803,
      "speria": 6804,
      "minimu": 6805,
      "ființe": 6806,
      "scape": 6807,
      "##ntar": 6808,
      "mul": 6809,
      "norme": 6810,
      "ciuper": 6811,
      "forței": 6812,
      "68": 6813,
      "##lit": 6814,
      "##oli": 6815,
      "mana": 6816,
      "gro": 6817,
      "cult": 6818,
      "browse": 6819,
      "##ig": 6820,
      "greşit": 6821,
      "cifra": 6822,
      "presă,": 6823,
      "##tui": 6824,
      "(vezi": 6825,
      "urme": 6826,
      "##mm": 6827,
      "700": 6828,
      "lung,": 6829,
      "putând": 6830,
      "##ivului": 6831,
      "##ându-i": 6832,
      "##e/": 6833,
      "agentu": 6834,
      "##iță": 6835,
      "luând": 6836,
      "casual": 6837,
      "halep": 6838,
      "pierd": 6839,
      "galați": 6840,
      "##mie": 6841,
      "##buția": 6842,
      "##nală": 6843,
      "##scută": 6844,
      "serbia": 6845,
      "##orme": 6846,
      "autoar": 6847,
      "olanda": 6848,
      "cerami": 6849,
      "rostit": 6850,
      "galaţi": 6851,
      "toţii": 6852,
      "obstac": 6853,
      "2001": 6854,
      "nu-şi": 6855,
      "non-": 6856,
      "ceasul": 6857,
      "secţia": 6858,
      "ordini": 6859,
      "civil": 6860,
      "vota": 6861,
      "chi": 6862,
      "##ani,": 6863,
      "monede": 6864,
      "##stat": 6865,
      "bolilo": 6866,
      "cruce": 6867,
      "apela": 6868,
      "digest": 6869,
      "morală": 6870,
      "plaja": 6871,
      "„se": 6872,
      "pu": 6873,
      "##lizare": 6874,
      "##ron": 6875,
      "##ntarea": 6876,
      "previz": 6877,
      "trupe": 6878,
      "##ima": 6879,
      "(1),": 6880,
      "emoţio": 6881,
      "reduse": 6882,
      "alin.": 6883,
      "canada": 6884,
      "##ctuale": 6885,
      "##man,": 6886,
      "##a;": 6887,
      "semest": 6888,
      "ampren": 6889,
      "##rol": 6890,
      "școlil": 6891,
      "grupar": 6892,
      "##ţionare": 6893,
      "legală": 6894,
      "forum": 6895,
      "ț": 6896,
      "ținând": 6897,
      "##07": 6898,
      "##pal,": 6899,
      "ră": 6900,
      "lă": 6901,
      "metal": 6902,
      "dotat": 6903,
      "unanim": 6904,
      "secția": 6905,
      "bilet": 6906,
      "reușeș": 6907,
      "##36": 6908,
      "egală": 6909,
      "caldă": 6910,
      "șansa": 6911,
      "##mia": 6912,
      "olande": 6913,
      "alergi": 6914,
      "ajunse": 6915,
      "2004,": 6916,
      "e)": 6917,
      "ş": 6918,
      "maica": 6919,
      "##ndări": 6920,
      "listel": 6921,
      "consim": 6922,
      "1989,": 6923,
      "spate,": 6924,
      "curioz": 6925,
      "pradă": 6926,
      "##ghe": 6927,
      "##izată": 6928,
      "numi": 6929,
      "“în": 6930,
      "out": 6931,
      "##orile": 6932,
      "făcu": 6933,
      "##dan": 6934,
      "preia": 6935,
      "##zu": 6936,
      "mângâi": 6937,
      "ziduri": 6938,
      "youtub": 6939,
      "meteo": 6940,
      "fo": 6941,
      "închip": 6942,
      "elev": 6943,
      "tai": 6944,
      "##51": 6945,
      "##unilor": 6946,
      "schi": 6947,
      "livrat": 6948,
      "##hu": 6949,
      "motoci": 6950,
      "\"re": 6951,
      "fiți": 6952,
      "salonu": 6953,
      "##cit": 6954,
      "negri": 6955,
      "revela": 6956,
      "##geri": 6957,
      "##nitatea": 6958,
      "impreu": 6959,
      "dacă,": 6960,
      "##liștii": 6961,
      "##entează": 6962,
      "domnie": 6963,
      "##ământul": 6964,
      "##m.": 6965,
      "##eşedint": 6966,
      "firea": 6967,
      "ieşi": 6968,
      "brusc": 6969,
      "reține": 6970,
      "înflor": 6971,
      "comemo": 6972,
      "pariur": 6973,
      "##fo": 6974,
      "patrio": 6975,
      "##let": 6976,
      "##ției,": 6977,
      "##ăţilor": 6978,
      "##r-": 6979,
      "satele": 6980,
      "##iale,": 6981,
      "vreți": 6982,
      "##lip": 6983,
      "##fer": 6984,
      "spe": 6985,
      "##30,": 6986,
      "rege": 6987,
      "##',": 6988,
      "##46": 6989,
      "##stare": 6990,
      "clasat": 6991,
      "##lar": 6992,
      "„pro": 6993,
      "actor": 6994,
      "botoșa": 6995,
      "uscat": 6996,
      "##ţată": 6997,
      "##1)": 6998,
      "finele": 6999,
      "lemnul": 7000,
      "max": 7001,
      "tranny": 7002,
      "țării,": 7003,
      "##iciu": 7004,
      "##ano": 7005,
      "rachet": 7006,
      "vremii": 7007,
      "țină": 7008,
      "(1": 7009,
      "-,": 7010,
      "rambur": 7011,
      "##anţa": 7012,
      "5.": 7013,
      "extrag": 7014,
      "rupt": 7015,
      "##.5": 7016,
      "ferovi": 7017,
      "transn": 7018,
      "##cţie": 7019,
      "##ciul": 7020,
      "##tatii": 7021,
      "tra": 7022,
      "##fic": 7023,
      "ri": 7024,
      "muntea": 7025,
      "pereți": 7026,
      "##cat,": 7027,
      "ga": 7028,
      "##ino": 7029,
      "##c.": 7030,
      "masura": 7031,
      "privi": 7032,
      "##bu": 7033,
      "##-2": 7034,
      "stațiu": 7035,
      "##renoria": 7036,
      "voievo": 7037,
      "suna": 7038,
      "garanţ": 7039,
      "mp,": 7040,
      "dorin": 7041,
      "fanii": 7042,
      "##el,": 7043,
      "rămase": 7044,
      "restrâ": 7045,
      "art.1": 7046,
      "enorm": 7047,
      "asasin": 7048,
      "cercul": 7049,
      "caute": 7050,
      "finisa": 7051,
      "ger": 7052,
      "somnul": 7053,
      "fază": 7054,
      "roman,": 7055,
      "fe": 7056,
      "ala": 7057,
      "ki": 7058,
      "za": 7059,
      "##atură": 7060,
      "unde,": 7061,
      "cereal": 7062,
      "##37": 7063,
      "bac": 7064,
      "##sei": 7065,
      "duș": 7066,
      "(şi": 7067,
      "##enţii": 7068,
      "2005,": 7069,
      "bur": 7070,
      "vestea": 7071,
      "cd": 7072,
      "că-i": 7073,
      "degetu": 7074,
      "cerc": 7075,
      "spune,": 7076,
      "atrag": 7077,
      "##96": 7078,
      "##jului": 7079,
      "##atea,": 7080,
      "anunta": 7081,
      "compac": 7082,
      "##iș": 7083,
      "simult": 7084,
      "stresu": 7085,
      "sân": 7086,
      "##can": 7087,
      "surori": 7088,
      "morale": 7089,
      "folos": 7090,
      "marți": 7091,
      "puţini": 7092,
      "redesc": 7093,
      "##eriatul": 7094,
      "aprovi": 7095,
      "##ești,": 7096,
      "##vel": 7097,
      "octavi": 7098,
      "artei": 7099,
      "e-": 7100,
      "##ător,": 7101,
      "plâns": 7102,
      "sud,": 7103,
      "##85": 7104,
      "''": 7105,
      "săli": 7106,
      "creamp": 7107,
      "##ctura": 7108,
      "##t)": 7109,
      "tale,": 7110,
      "darul": 7111,
      "##naţi": 7112,
      "martir": 7113,
      "compun": 7114,
      "grupăr": 7115,
      "##aţilor": 7116,
      "washin": 7117,
      "aur,": 7118,
      "păstor": 7119,
      "##gent": 7120,
      "ionel": 7121,
      "intimi": 7122,
      "trager": 7123,
      "6.": 7124,
      "taxă": 7125,
      "##nci": 7126,
      "##ds": 7127,
      "bugete": 7128,
      "urban": 7129,
      "numeşt": 7130,
      "gândi": 7131,
      "##inței": 7132,
      "##isi": 7133,
      "##ializar": 7134,
      "##ă-": 7135,
      "##ay": 7136,
      "polite": 7137,
      "dublă": 7138,
      "marcel": 7139,
      "câmp": 7140,
      "cremă": 7141,
      "elveți": 7142,
      "##u-l": 7143,
      "eur": 7144,
      "##aturile": 7145,
      "(inclu": 7146,
      "galaxy": 7147,
      "autoht": 7148,
      "sea": 7149,
      "##onale": 7150,
      "mega": 7151,
      "##anți": 7152,
      "madrid": 7153,
      "(an": 7154,
      "play": 7155,
      "##zaţie": 7156,
      "(c": 7157,
      "teribi": 7158,
      "ruga": 7159,
      "clare": 7160,
      "##ng,": 7161,
      "##ință,": 7162,
      "78": 7163,
      "##rin": 7164,
      "asia": 7165,
      "diaspo": 7166,
      "ajusta": 7167,
      "iv": 7168,
      "încalc": 7169,
      "1)": 7170,
      "ușa": 7171,
      "##fin": 7172,
      "##56": 7173,
      "##za,": 7174,
      "2.": 7175,
      "vad": 7176,
      "clase": 7177,
      "dădea": 7178,
      "pretur": 7179,
      "##afiile": 7180,
      "neresp": 7181,
      "99": 7182,
      "vanzar": 7183,
      "oana": 7184,
      "ordina": 7185,
      "minimă": 7186,
      "single": 7187,
      "indici": 7188,
      "##tabil": 7189,
      "##bul": 7190,
      "##zări": 7191,
      "îmbătr": 7192,
      "opere": 7193,
      "##logice": 7194,
      "##vii": 7195,
      "##ariatul": 7196,
      "##știlor": 7197,
      "sfert": 7198,
      "penali": 7199,
      "post-": 7200,
      "oră,": 7201,
      "covasn": 7202,
      "##ma,": 7203,
      "##cal": 7204,
      "##dare": 7205,
      "enumer": 7206,
      "râul": 7207,
      "oa": 7208,
      "##97": 7209,
      "##-ne": 7210,
      "metri,": 7211,
      "##enția": 7212,
      "##bor": 7213,
      "##gică": 7214,
      "##anţă": 7215,
      "retail": 7216,
      "curat": 7217,
      "##59": 7218,
      "##eze,": 7219,
      "##buţie": 7220,
      "##98": 7221,
      "##n.": 7222,
      "##iare,": 7223,
      "##ste,": 7224,
      "tărice": 7225,
      "clipe": 7226,
      "dvs": 7227,
      "trepte": 7228,
      "##sco": 7229,
      "##ö": 7230,
      "##i),": 7231,
      "armă": 7232,
      "##tam": 7233,
      "##bilă,": 7234,
      "reunit": 7235,
      "aprind": 7236,
      "acorde": 7237,
      "##toarele": 7238,
      "reusit": 7239,
      "##53": 7240,
      "„dacă": 7241,
      "plătes": 7242,
      "sosire": 7243,
      "ig": 7244,
      "anvelo": 7245,
      "limbil": 7246,
      "bor": 7247,
      "gă": 7248,
      "boteza": 7249,
      "finant": 7250,
      "anuală": 7251,
      "az": 7252,
      "domni": 7253,
      "“de": 7254,
      "(u": 7255,
      "##luri": 7256,
      "##ţiuni": 7257,
      "leu": 7258,
      "multe,": 7259,
      "##retat": 7260,
      "anonim": 7261,
      "82": 7262,
      "apelul": 7263,
      "(201": 7264,
      "drăguț": 7265,
      "ke": 7266,
      "##cie": 7267,
      "##az": 7268,
      "diamet": 7269,
      "anunț": 7270,
      "##uș": 7271,
      "cândva": 7272,
      "descen": 7273,
      "îngrop": 7274,
      "carbon": 7275,
      "##-200": 7276,
      "coboar": 7277,
      "luarea": 7278,
      "islami": 7279,
      "##s-": 7280,
      "aici:": 7281,
      "stie": 7282,
      "##lim": 7283,
      "##nel": 7284,
      "ştiut": 7285,
      "arde": 7286,
      "(8": 7287,
      "iz": 7288,
      "##ama": 7289,
      "scara": 7290,
      "oug": 7291,
      "##loase": 7292,
      "##tic,": 7293,
      "le-ar": 7294,
      "gravit": 7295,
      "barier": 7296,
      "##riului": 7297,
      "##ote": 7298,
      "punând": 7299,
      "##ky": 7300,
      "##cărilor": 7301,
      "cosmin": 7302,
      "beton": 7303,
      "decont": 7304,
      "finlan": 7305,
      "cărții": 7306,
      "##ătă": 7307,
      "##bra": 7308,
      "lenjer": 7309,
      "săraci": 7310,
      "senior": 7311,
      "pisici": 7312,
      "renova": 7313,
      "##sel": 7314,
      "sha": 7315,
      "##işti": 7316,
      "84": 7317,
      "onu": 7318,
      "opresc": 7319,
      "cos": 7320,
      "##’,": 7321,
      "parter": 7322,
      "precip": 7323,
      "teama": 7324,
      "##celor": 7325,
      "forțat": 7326,
      "##onică": 7327,
      "băi": 7328,
      "clasei": 7329,
      "##ag": 7330,
      "ya": 7331,
      "в": 7332,
      "##smele": 7333,
      "rece,": 7334,
      "bă": 7335,
      "##aşte": 7336,
      "##itorii": 7337,
      "anca": 7338,
      "##n:": 7339,
      "lipsei": 7340,
      "jucato": 7341,
      "şa": 7342,
      "figuri": 7343,
      "unghii": 7344,
      "ridice": 7345,
      "hardco": 7346,
      "##ormarea": 7347,
      "##aţie,": 7348,
      "umane,": 7349,
      "##47": 7350,
      "8.": 7351,
      "##72": 7352,
      "alea": 7353,
      "tabelu": 7354,
      "ambii": 7355,
      "magnet": 7356,
      "##r)": 7357,
      "ura": 7358,
      "ochela": 7359,
      "##ling": 7360,
      "mersul": 7361,
      "that": 7362,
      "4.": 7363,
      "oaspeț": 7364,
      "vară,": 7365,
      "02": 7366,
      "##gea": 7367,
      "aceeas": 7368,
      "tânăra": 7369,
      "scurge": 7370,
      "locaţi": 7371,
      "te-a": 7372,
      "acuzaţ": 7373,
      "cre": 7374,
      "plajă": 7375,
      "##ențele": 7376,
      "suprap": 7377,
      "##ham": 7378,
      "##zele": 7379,
      "domnia": 7380,
      "modă": 7381,
      "picătu": 7382,
      "cuplur": 7383,
      "armată": 7384,
      "##aru": 7385,
      "##teni": 7386,
      "ȋn": 7387,
      "băut": 7388,
      "usl": 7389,
      "pnl,": 7390,
      "iubeșt": 7391,
      "subter": 7392,
      "hol": 7393,
      "##retarea": 7394,
      "##ies": 7395,
      "câtă": 7396,
      "##wi": 7397,
      "##71": 7398,
      "##2)": 7399,
      "##iilor,": 7400,
      "amendă": 7401,
      "2018.1": 7402,
      "calde": 7403,
      "orașel": 7404,
      "##89": 7405,
      "##a\"": 7406,
      "cioban": 7407,
      "min": 7408,
      "##bare": 7409,
      "##ا": 7410,
      "nas": 7411,
      "traini": 7412,
      "95": 7413,
      "ochilo": 7414,
      "##şă": 7415,
      "game": 7416,
      "open": 7417,
      "03": 7418,
      "info": 7419,
      "##alizate": 7420,
      "mail": 7421,
      "goi": 7422,
      "clipa": 7423,
      "ii,": 7424,
      "asian": 7425,
      "piardă": 7426,
      "##„": 7427,
      "##etă": 7428,
      "(al": 7429,
      "graniţ": 7430,
      "7.": 7431,
      "92": 7432,
      "cardul": 7433,
      "realis": 7434,
      "litri": 7435,
      "ureche": 7436,
      "##ces": 7437,
      "gi": 7438,
      "corpur": 7439,
      "ruse": 7440,
      "basche": 7441,
      "corela": 7442,
      "##ku": 7443,
      "30%": 7444,
      "##ucere": 7445,
      "##57": 7446,
      "pretut": 7447,
      "coduri": 7448,
      "admis": 7449,
      "##izării": 7450,
      "##icitate": 7451,
      "locuia": 7452,
      "rau": 7453,
      "##anului": 7454,
      "mort": 7455,
      "chiria": 7456,
      "sindro": 7457,
      "rurale": 7458,
      "von": 7459,
      "miezul": 7460,
      "##rdinară": 7461,
      "##versita": 7462,
      "înfrun": 7463,
      "adusă": 7464,
      "rate": 7465,
      "hard": 7466,
      "frate": 7467,
      "ari": 7468,
      "staţiu": 7469,
      "intest": 7470,
      "##usă": 7471,
      "rochii": 7472,
      "semnar": 7473,
      "wa": 7474,
      "##65": 7475,
      "subtil": 7476,
      "ușurin": 7477,
      "opoziţ": 7478,
      "ploieş": 7479,
      "litora": 7480,
      "##rus": 7481,
      "găsite": 7482,
      "știa": 7483,
      "bel": 7484,
      "specul": 7485,
      "ab": 7486,
      "eficac": 7487,
      "##voastra": 7488,
      "valuri": 7489,
      "mo": 7490,
      "degeab": 7491,
      "##înt": 7492,
      "gros": 7493,
      "vestul": 7494,
      "##derii": 7495,
      "##lian": 7496,
      "##cios": 7497,
      "„i": 7498,
      "harul": 7499,
      "##re:": 7500,
      "hal": 7501,
      "##cs": 7502,
      "tul": 7503,
      "reputa": 7504,
      "##don": 7505,
      "scris,": 7506,
      "barcel": 7507,
      "##64": 7508,
      "summit": 7509,
      "pornst": 7510,
      "numite": 7511,
      "greută": 7512,
      "##i.ro": 7513,
      "##sa,": 7514,
      "strica": 7515,
      "##tin": 7516,
      "soi": 7517,
      "răstur": 7518,
      "spălar": 7519,
      "„eu": 7520,
      "sfantu": 7521,
      "pussy": 7522,
      "adună": 7523,
      "##ret": 7524,
      "seamăn": 7525,
      "##xa": 7526,
      "##nez": 7527,
      "nemulţ": 7528,
      "mortal": 7529,
      "cânta": 7530,
      "zilei,": 7531,
      "secţie": 7532,
      "textil": 7533,
      "lotul": 7534,
      "##62": 7535,
      "##acă": 7536,
      "83": 7537,
      "(ma": 7538,
      "sri": 7539,
      "los": 7540,
      "led": 7541,
      "##cel": 7542,
      "(g": 7543,
      "cenzur": 7544,
      "##ebi": 7545,
      "##77": 7546,
      "igor": 7547,
      "##erirea": 7548,
      "frustr": 7549,
      "de-o": 7550,
      "iertar": 7551,
      "##ob": 7552,
      "gara": 7553,
      "##54": 7554,
      "coeren": 7555,
      "##ând,": 7556,
      "afli": 7557,
      "sociol": 7558,
      "##ucţii": 7559,
      "sfertu": 7560,
      "##my": 7561,
      "sinuci": 7562,
      "##țit": 7563,
      "##tilor": 7564,
      "aga": 7565,
      "eligib": 7566,
      "##ritatea": 7567,
      "vol": 7568,
      "mei,": 7569,
      "arhive": 7570,
      "nicole": 7571,
      "curaj": 7572,
      "sâni": 7573,
      "##t”": 7574,
      "9.": 7575,
      "fum": 7576,
      "##ы": 7577,
      "scuze": 7578,
      "downlo": 7579,
      "##cere": 7580,
      "recita": 7581,
      "##ească,": 7582,
      "##len": 7583,
      "##aci": 7584,
      "vânt": 7585,
      "gel": 7586,
      "drum,": 7587,
      "##/1": 7588,
      "alumin": 7589,
      "oraşe": 7590,
      "ghi": 7591,
      "##nari": 7592,
      "alianţ": 7593,
      "cp": 7594,
      "biblic": 7595,
      "##fir": 7596,
      "evrei": 7597,
      "185": 7598,
      "##dorul": 7599,
      "frigid": 7600,
      "so": 7601,
      "murdar": 7602,
      "bucuro": 7603,
      "„pentr": 7604,
      "##gerii": 7605,
      "mireas": 7606,
      "usturo": 7607,
      "##.4": 7608,
      "den": 7609,
      "spune:": 7610,
      "îndeam": 7611,
      "meniul": 7612,
      "învaţă": 7613,
      "trecân": 7614,
      "(18": 7615,
      "fântân": 7616,
      "autoca": 7617,
      "tir": 7618,
      "##т": 7619,
      "##ii:": 7620,
      "ratat": 7621,
      "beau": 7622,
      "reţine": 7623,
      "##tici": 7624,
      "##66": 7625,
      "promot": 7626,
      "revend": 7627,
      "##orie": 7628,
      "recens": 7629,
      "ani)": 7630,
      "estul": 7631,
      "##pia": 7632,
      "astra": 7633,
      "tată": 7634,
      "păreri": 7635,
      "rapid,": 7636,
      "leziun": 7637,
      "seminț": 7638,
      "sergiu": 7639,
      "duhulu": 7640,
      "##cenți": 7641,
      "dizolv": 7642,
      "##iască": 7643,
      "tragic": 7644,
      "îngădu": 7645,
      "temeli": 7646,
      "##giu": 7647,
      "##ban": 7648,
      "severi": 7649,
      "abuzur": 7650,
      "с": 7651,
      "##ras": 7652,
      "13,": 7653,
      "##nitate": 7654,
      "##die": 7655,
      "##ren": 7656,
      "multa": 7657,
      "\"ca": 7658,
      "evitar": 7659,
      "brad": 7660,
      "bei": 7661,
      "virusu": 7662,
      "joaca": 7663,
      "cheia": 7664,
      "portar": 7665,
      "luptăt": 7666,
      "stări": 7667,
      "lămuri": 7668,
      "motiv,": 7669,
      "panour": 7670,
      "curată": 7671,
      "ştiţi": 7672,
      "semnel": 7673,
      "„po": 7674,
      "88": 7675,
      "doza": 7676,
      "pilot": 7677,
      "##tal": 7678,
      "îngust": 7679,
      "##tter": 7680,
      "menite": 7681,
      "##ina,": 7682,
      "fin": 7683,
      "##þi": 7684,
      "##uiască": 7685,
      "c,": 7686,
      "infecţ": 7687,
      "##indu-se": 7688,
      "veșnic": 7689,
      "id": 7690,
      "##tecii": 7691,
      "trasee": 7692,
      "resort": 7693,
      "##iscopul": 7694,
      "bon": 7695,
      "porni": 7696,
      "dornic": 7697,
      "##lie": 7698,
      "prevaz": 7699,
      "##ios": 7700,
      "##onării": 7701,
      "obosea": 7702,
      "totusi": 7703,
      "\"am": 7704,
      "emite": 7705,
      "rubric": 7706,
      "procla": 7707,
      "cazino": 7708,
      "##ctual": 7709,
      "total,": 7710,
      "##rice": 7711,
      "cop": 7712,
      "rapide": 7713,
      "##cerea": 7714,
      "litigi": 7715,
      "##mit": 7716,
      "vestim": 7717,
      "uleiur": 7718,
      "testul": 7719,
      "bank": 7720,
      "##arte": 7721,
      "agenda": 7722,
      "##eanu,": 7723,
      "this": 7724,
      "balcan": 7725,
      "bran": 7726,
      "suntet": 7727,
      "reţeau": 7728,
      "fugit": 7729,
      "cons": 7730,
      "anulat": 7731,
      "##varea": 7732,
      "minișt": 7733,
      "rest": 7734,
      "tele": 7735,
      "##iali": 7736,
      "fine,": 7737,
      "pictat": 7738,
      "##mas": 7739,
      "##ang": 7740,
      "maxime": 7741,
      "ceasur": 7742,
      "sugera": 7743,
      "##uția": 7744,
      "botoşa": 7745,
      "##rte": 7746,
      "ză": 7747,
      "vulcan": 7748,
      "băgat": 7749,
      "##erite": 7750,
      "budape": 7751,
      "ediții": 7752,
      "zilelo": 7753,
      "gene": 7754,
      "șansă": 7755,
      "rand": 7756,
      "##od": 7757,
      "obligă": 7758,
      "##ştilor": 7759,
      "ofer": 7760,
      "##ortului": 7761,
      "deriva": 7762,
      "strămo": 7763,
      "miere": 7764,
      "sectiu": 7765,
      "ap": 7766,
      "##ade": 7767,
      "green": 7768,
      "##atiile": 7769,
      "mono": 7770,
      "ieșeni": 7771,
      "##ionalis": 7772,
      "sintez": 7773,
      "##ţit": 7774,
      "speră": 7775,
      "##iştii": 7776,
      "07": 7777,
      "##3.": 7778,
      "##nes": 7779,
      "##nis": 7780,
      "##aţii,": 7781,
      "##....": 7782,
      "cumpli": 7783,
      "placă": 7784,
      "delimi": 7785,
      "##р": 7786,
      "##țul": 7787,
      "suspic": 7788,
      "cruci": 7789,
      "ardeal": 7790,
      "socoti": 7791,
      "aseară": 7792,
      "che": 7793,
      "##ye": 7794,
      "##ert": 7795,
      "bancă": 7796,
      "t.": 7797,
      "##.3": 7798,
      "coleg": 7799,
      "curse": 7800,
      "bir": 7801,
      "##land": 7802,
      "##treze": 7803,
      "cri": 7804,
      "##manță": 7805,
      "peter": 7806,
      "soție": 7807,
      "arena": 7808,
      "iasi": 7809,
      "(vi": 7810,
      "##tt": 7811,
      "roșii": 7812,
      "ideală": 7813,
      "dentar": 7814,
      "##94": 7815,
      "depărt": 7816,
      "ips": 7817,
      "##țea": 7818,
      "pp": 7819,
      "atenta": 7820,
      "##har": 7821,
      "“i": 7822,
      "reluat": 7823,
      "întăre": 7824,
      "##năm": 7825,
      "##kin": 7826,
      "confes": 7827,
      "##ge,": 7828,
      "tin": 7829,
      "rândui": 7830,
      "comis": 7831,
      "##s”": 7832,
      "lăsați": 7833,
      "##retare": 7834,
      "##pri": 7835,
      "crizei": 7836,
      "350": 7837,
      "suedia": 7838,
      "poza": 7839,
      "platou": 7840,
      "##tuirea": 7841,
      "abuziv": 7842,
      "eroilo": 7843,
      "##cienii": 7844,
      "înspre": 7845,
      "##ek": 7846,
      "valer": 7847,
      "##abil,": 7848,
      "ic": 7849,
      "bet": 7850,
      "##we": 7851,
      "cadast": 7852,
      "##pp": 7853,
      "trofeu": 7854,
      "##ață,": 7855,
      "##ine,": 7856,
      "ren": 7857,
      "dispre": 7858,
      "##căm": 7859,
      "##rat,": 7860,
      "revoca": 7861,
      "0.": 7862,
      "##al-": 7863,
      "experţ": 7864,
      "##ular": 7865,
      "minima": 7866,
      "##min": 7867,
      "81": 7868,
      "tă": 7869,
      "raluca": 7870,
      "xx": 7871,
      "dom": 7872,
      "##rlament": 7873,
      "elasti": 7874,
      "tro": 7875,
      "hepati": 7876,
      "grand": 7877,
      "romano": 7878,
      "sinod": 7879,
      "##entării": 7880,
      "impotr": 7881,
      "șterge": 7882,
      "copila": 7883,
      "paragr": 7884,
      "##nții": 7885,
      "##omi": 7886,
      "##eria": 7887,
      "presus": 7888,
      "anton": 7889,
      "ban": 7890,
      "nevoi": 7891,
      "aleasă": 7892,
      "slovac": 7893,
      "încarc": 7894,
      "su": 7895,
      "##ndum": 7896,
      "##sim": 7897,
      "simpoz": 7898,
      "col": 7899,
      "“nu": 7900,
      "cote": 7901,
      "##vo": 7902,
      "##.7": 7903,
      "fine": 7904,
      "avans": 7905,
      "vorbe": 7906,
      "acuză": 7907,
      "tic": 7908,
      "gre": 7909,
      "gazelo": 7910,
      "usa": 7911,
      "fond,": 7912,
      "cauză,": 7913,
      "amploa": 7914,
      "box": 7915,
      "dia": 7916,
      "dragul": 7917,
      "audier": 7918,
      "trup": 7919,
      "##ortat": 7920,
      "love": 7921,
      "##ună": 7922,
      "piteşt": 7923,
      "##ăl": 7924,
      "##rm": 7925,
      "citire": 7926,
      "cari": 7927,
      "ot": 7928,
      "##lle": 7929,
      "trecea": 7930,
      "îmbrac": 7931,
      "restab": 7932,
      "ploi": 7933,
      "140": 7934,
      "##38": 7935,
      "viza": 7936,
      "##sabili": 7937,
      "criste": 7938,
      "##pte": 7939,
      "bolile": 7940,
      "##ectarea": 7941,
      "bucata": 7942,
      "ou": 7943,
      "##-s": 7944,
      "ploieș": 7945,
      "extens": 7946,
      "##ght": 7947,
      "##eţea": 7948,
      "cântă": 7949,
      "tr": 7950,
      "stins": 7951,
      "##ndate": 7952,
      "96": 7953,
      "dăruit": 7954,
      "##/e": 7955,
      "##dy": 7956,
      "bacău,": 7957,
      "ungure": 7958,
      "deopot": 7959,
      "##92": 7960,
      "mg": 7961,
      "##lei,": 7962,
      "microf": 7963,
      "masini": 7964,
      "cio": 7965,
      "##ian,": 7966,
      "utilă": 7967,
      "ardele": 7968,
      "soţul": 7969,
      "##ieră": 7970,
      "james": 7971,
      "##cha": 7972,
      "##resc": 7973,
      "##-3": 7974,
      "îmboln": 7975,
      "deodat": 7976,
      "infant": 7977,
      "##opul": 7978,
      "##iţă": 7979,
      "##iuri": 7980,
      "##iere,": 7981,
      "romana": 7982,
      "captiv": 7983,
      "poarte": 7984,
      "ed": 7985,
      "oral": 7986,
      "secol": 7987,
      "protag": 7988,
      "2.000": 7989,
      "(15": 7990,
      "ivan": 7991,
      "arma": 7992,
      "târg": 7993,
      "juriul": 7994,
      "fluxul": 7995,
      "##etarii": 7996,
      "##elul": 7997,
      "bumbac": 7998,
      "##iş": 7999,
      "zid": 8000,
      "iu": 8001,
      "parado": 8002,
      "uri": 8003,
      "##bet": 8004,
      "anti": 8005,
      "mariti": 8006,
      "##fu": 8007,
      "cor": 8008,
      "execuţ": 8009,
      "inimil": 8010,
      "2000,": 8011,
      "amplif": 8012,
      "mir": 8013,
      "##ota": 8014,
      "benzi": 8015,
      "##fă": 8016,
      "urmele": 8017,
      "filip": 8018,
      "bătaie": 8019,
      "##mentat": 8020,
      "audit": 8021,
      "##uş": 8022,
      "vechil": 8023,
      "băieţi": 8024,
      "puțină": 8025,
      "adica": 8026,
      "##olo": 8027,
      "agenti": 8028,
      "are,": 8029,
      "##san": 8030,
      "2)": 8031,
      "130": 8032,
      "trans": 8033,
      "##uţie": 8034,
      "(2": 8035,
      "încorp": 8036,
      "păstră": 8037,
      "##nului,": 8038,
      "şcoli": 8039,
      "sunet": 8040,
      "##ica,": 8041,
      "”s": 8042,
      "șir": 8043,
      "colegu": 8044,
      "##king": 8045,
      "##án": 8046,
      "î": 8047,
      "infect": 8048,
      "sco": 8049,
      "urmeze": 8050,
      "##icativă": 8051,
      "##tz": 8052,
      "##hel": 8053,
      "##nut": 8054,
      "##ece": 8055,
      "dealul": 8056,
      "masca": 8057,
      "##sse": 8058,
      "iata": 8059,
      "##ata,": 8060,
      "##jează": 8061,
      "##eşti,": 8062,
      "##anţi": 8063,
      "##sec": 8064,
      "orar": 8065,
      "ct": 8066,
      "muie": 8067,
      "##icatul": 8068,
      "##upe": 8069,
      "șu": 8070,
      "100.00": 8071,
      "subțir": 8072,
      "poiana": 8073,
      "motori": 8074,
      "răzbun": 8075,
      "inregi": 8076,
      "##lic": 8077,
      "blogge": 8078,
      "(9": 8079,
      "munte,": 8080,
      "##ostit": 8081,
      "tortur": 8082,
      "pol": 8083,
      "ateriz": 8084,
      "doi,": 8085,
      "latină": 8086,
      "milost": 8087,
      "##nie,": 8088,
      "##з": 8089,
      "sp": 8090,
      "cana": 8091,
      "creadă": 8092,
      "##elia": 8093,
      "##ologice": 8094,
      "sfat": 8095,
      "măslin": 8096,
      "măr": 8097,
      "87": 8098,
      "##rom": 8099,
      "refuzu": 8100,
      "ouă": 8101,
      "rupe": 8102,
      "(ce)": 8103,
      "sfântă": 8104,
      "nutrit": 8105,
      "bleste": 8106,
      "baze": 8107,
      "##cţii": 8108,
      "dascăl": 8109,
      "nr.3": 8110,
      "##lvaniei": 8111,
      "bunica": 8112,
      "dinu": 8113,
      "nor": 8114,
      "mame": 8115,
      "time": 8116,
      "##vent": 8117,
      "##şte,": 8118,
      "spin": 8119,
      "bucăta": 8120,
      "##brul": 8121,
      "operei": 8122,
      "adică,": 8123,
      "##nk": 8124,
      "trenur": 8125,
      "##anda": 8126,
      "##ăi": 8127,
      "##cem": 8128,
      "\"ce": 8129,
      "noutat": 8130,
      "##bila": 8131,
      "##ect": 8132,
      "nr": 8133,
      "alocar": 8134,
      "##iscopie": 8135,
      "##uz": 8136,
      "setul": 8137,
      "(si": 8138,
      "întrev": 8139,
      "carton": 8140,
      "##68": 8141,
      "##arei": 8142,
      "##iune,": 8143,
      "##4)": 8144,
      "##entări": 8145,
      "norocu": 8146,
      "##ţilor,": 8147,
      "biletu": 8148,
      "gătit": 8149,
      "sai": 8150,
      "##c)": 8151,
      "glas": 8152,
      "##lon": 8153,
      "##nc": 8154,
      "##uci": 8155,
      "împing": 8156,
      "##erele": 8157,
      "certit": 8158,
      "14,": 8159,
      "cursă": 8160,
      "suedez": 8161,
      "cc": 8162,
      "##ificat": 8163,
      "##jan": 8164,
      "credib": 8165,
      "avere": 8166,
      "„te": 8167,
      "abunde": 8168,
      "despar": 8169,
      "sir": 8170,
      "charle": 8171,
      "turn": 8172,
      "grupe": 8173,
      "5%": 8174,
      "86": 8175,
      "vredni": 8176,
      "##inesc": 8177,
      "160": 8178,
      "job": 8179,
      "disc": 8180,
      "##ătoare,": 8181,
      "sfarsi": 8182,
      "##61": 8183,
      "##ul”": 8184,
      "dând": 8185,
      "întîmp": 8186,
      "„do": 8187,
      "anghel": 8188,
      "##ități": 8189,
      "hu": 8190,
      "##amente": 8191,
      "vechea": 8192,
      "##cy": 8193,
      "{": 8194,
      "moral": 8195,
      "canal": 8196,
      "##lvania,": 8197,
      "79": 8198,
      "amor": 8199,
      "ocupe": 8200,
      "scumpe": 8201,
      "##curi": 8202,
      "##lităţi": 8203,
      "##tăți,": 8204,
      "l.": 8205,
      "##ucţia": 8206,
      "mall": 8207,
      "##ess": 8208,
      "verde,": 8209,
      "spectr": 8210,
      "und": 8211,
      "gastro": 8212,
      "oc": 8213,
      "sunete": 8214,
      "actriț": 8215,
      "oprire": 8216,
      "##hin": 8217,
      "##stice": 8218,
      "lansa": 8219,
      "##ntinesc": 8220,
      "deşeur": 8221,
      "(am": 8222,
      "auto,": 8223,
      "##ndăm": 8224,
      "or,": 8225,
      "ji": 8226,
      "##hia": 8227,
      "simpla": 8228,
      "capulu": 8229,
      "##alt": 8230,
      "ţării,": 8231,
      "##ü": 8232,
      "pacea": 8233,
      "##fel": 8234,
      "cot": 8235,
      "stăm": 8236,
      "depusă": 8237,
      "rezuma": 8238,
      "##age": 8239,
      "##}": 8240,
      "##bs": 8241,
      "##rul,": 8242,
      "##й": 8243,
      "l-ai": 8244,
      "evaziu": 8245,
      "##87": 8246,
      "##cieni": 8247,
      "grație": 8248,
      "afară,": 8249,
      "nevino": 8250,
      "##ționat": 8251,
      "placa": 8252,
      "##his": 8253,
      "acu": 8254,
      "pildă,": 8255,
      "hi": 8256,
      "film,": 8257,
      "multim": 8258,
      "##our": 8259,
      "##buabili": 8260,
      "ghidul": 8261,
      "câine": 8262,
      "chitar": 8263,
      "încet": 8264,
      "##itia": 8265,
      "aducer": 8266,
      "dorea": 8267,
      "ceruri": 8268,
      "##ltura": 8269,
      "##mânt,": 8270,
      "89": 8271,
      "has": 8272,
      "plantă": 8273,
      "impună": 8274,
      "cautar": 8275,
      "iancu": 8276,
      "##pan": 8277,
      "worksh": 8278,
      "emoţii": 8279,
      "viteaz": 8280,
      "unt": 8281,
      "cec": 8282,
      "mușchi": 8283,
      "inevit": 8284,
      "mâncăr": 8285,
      "futut": 8286,
      "car": 8287,
      "##girea": 8288,
      "superm": 8289,
      "full": 8290,
      "secție": 8291,
      "##tiile": 8292,
      "110": 8293,
      "ina": 8294,
      "medier": 8295,
      "##by": 8296,
      "##uturi": 8297,
      "##tur": 8298,
      "stra": 8299,
      "plasa": 8300,
      "##93": 8301,
      "mâine,": 8302,
      "sam": 8303,
      "etajul": 8304,
      "botezu": 8305,
      "textur": 8306,
      "ură": 8307,
      "##l)": 8308,
      "colone": 8309,
      "preda": 8310,
      "m,": 8311,
      "macar": 8312,
      "dejun": 8313,
      "##iului,": 8314,
      "seminţ": 8315,
      "1990,": 8316,
      "sunetu": 8317,
      "##hone": 8318,
      "##.9": 8319,
      "##inţei": 8320,
      "divin": 8321,
      "##ște,": 8322,
      "##ţea": 8323,
      "mizeri": 8324,
      "fapta": 8325,
      "##saţi": 8326,
      "##izări": 8327,
      "odihnă": 8328,
      "(te": 8329,
      "crin": 8330,
      "coa": 8331,
      "cezar": 8332,
      "șoferu": 8333,
      "##santă": 8334,
      "ratifi": 8335,
      "##ndată": 8336,
      "munții": 8337,
      "stop": 8338,
      "##uti": 8339,
      "fideli": 8340,
      "sânger": 8341,
      "cărţii": 8342,
      "frontu": 8343,
      "##84": 8344,
      "##ser": 8345,
      "gigant": 8346,
      "râului": 8347,
      "##91": 8348,
      "cum,": 8349,
      "center": 8350,
      "##țional": 8351,
      "##-o,": 8352,
      "##des": 8353,
      "voci": 8354,
      "hotare": 8355,
      "rănit": 8356,
      "##ţiei,": 8357,
      "horosc": 8358,
      "98": 8359,
      "modela": 8360,
      "probă": 8361,
      "subtit": 8362,
      "stârni": 8363,
      "##α": 8364,
      "(m": 8365,
      "##inerea": 8366,
      "tri": 8367,
      "mont": 8368,
      "##rivă": 8369,
      "serii": 8370,
      "poluar": 8371,
      "altitu": 8372,
      "(re": 8373,
      "bunăst": 8374,
      "cauciu": 8375,
      "ști": 8376,
      "false": 8377,
      "##vitatea": 8378,
      "persis": 8379,
      "locati": 8380,
      "ian": 8381,
      "goale": 8382,
      "sumei": 8383,
      "##-democr": 8384,
      "15,": 8385,
      "elveţi": 8386,
      "##],": 8387,
      "##3)": 8388,
      "stre": 8389,
      "„ar": 8390,
      "tea": 8391,
      "##av": 8392,
      "regal": 8393,
      "##urării": 8394,
      "estime": 8395,
      "biogra": 8396,
      "##le:": 8397,
      "##ghi": 8398,
      "secven": 8399,
      "românc": 8400,
      "##stan": 8401,
      "date,": 8402,
      "fri": 8403,
      "rurală": 8404,
      "incat": 8405,
      "##nică": 8406,
      "duci": 8407,
      "ziar": 8408,
      "gravid": 8409,
      "can": 8410,
      "##ativ,": 8411,
      "generi": 8412,
      "plafon": 8413,
      "„din": 8414,
      "##pare": 8415,
      "##art": 8416,
      "digi": 8417,
      "lin": 8418,
      "##iată": 8419,
      "##entizar": 8420,
      "##vin": 8421,
      "rată": 8422,
      "##ucţie": 8423,
      "##tice,": 8424,
      "noțiun": 8425,
      "##sar": 8426,
      "simion": 8427,
      "judete": 8428,
      "##nim": 8429,
      "##.6": 8430,
      "ocazii": 8431,
      "dormi": 8432,
      "transc": 8433,
      "##ucă": 8434,
      "vătăma": 8435,
      "iată,": 8436,
      "recicl": 8437,
      "feri": 8438,
      "stoc": 8439,
      "lei/": 8440,
      "##liştii": 8441,
      "##ngi": 8442,
      "sara": 8443,
      "##\")": 8444,
      "ph": 8445,
      "mira": 8446,
      "##hen": 8447,
      "##când": 8448,
      "rm": 8449,
      "calato": 8450,
      "##izi": 8451,
      "cancel": 8452,
      "##iene": 8453,
      "park": 8454,
      "##tesc": 8455,
      "med": 8456,
      "mentio": 8457,
      "pieţei": 8458,
      "munci": 8459,
      "mat": 8460,
      "amar": 8461,
      "daţi": 8462,
      "porc": 8463,
      "mol": 8464,
      "logist": 8465,
      "##.8": 8466,
      "desfac": 8467,
      "##rec": 8468,
      "##şit": 8469,
      "sate": 8470,
      "carita": 8471,
      "##oro": 8472,
      "sedint": 8473,
      "iarnă,": 8474,
      "anime": 8475,
      "900": 8476,
      "usr": 8477,
      "##lişti": 8478,
      "##78": 8479,
      "abater": 8480,
      "tabăra": 8481,
      "##aţă,": 8482,
      "limped": 8483,
      "“e": 8484,
      "##itul": 8485,
      "##ient": 8486,
      "##nități": 8487,
      "##ziile": 8488,
      "absenț": 8489,
      "morţii": 8490,
      "##onului": 8491,
      "sie": 8492,
      "(ne": 8493,
      "##cra": 8494,
      "şcolil": 8495,
      "nori": 8496,
      "egale": 8497,
      "##ple": 8498,
      "file": 8499,
      "##ându-l": 8500,
      "rătăci": 8501,
      "ecumen": 8502,
      "##tăţirea": 8503,
      "##uro": 8504,
      "exact,": 8505,
      "dezinf": 8506,
      "încete": 8507,
      "kit": 8508,
      "reacti": 8509,
      "scufun": 8510,
      "china,": 8511,
      "citeas": 8512,
      "(p": 8513,
      "##cția": 8514,
      "ore.": 8515,
      "teorii": 8516,
      "##aturii": 8517,
      "indisp": 8518,
      "deja,": 8519,
      "##sitare": 8520,
      "evolue": 8521,
      "##0)": 8522,
      "simțea": 8523,
      "rural": 8524,
      "oxigen": 8525,
      "##cc": 8526,
      "##oza": 8527,
      "es": 8528,
      "##ină,": 8529,
      "plec": 8530,
      "##79": 8531,
      "obțină": 8532,
      "##73": 8533,
      "##utat": 8534,
      "##unt": 8535,
      "lan": 8536,
      "poetic": 8537,
      "reședi": 8538,
      "mureș": 8539,
      "b,": 8540,
      "##uct": 8541,
      "forțe": 8542,
      "puțin,": 8543,
      "tovară": 8544,
      "##-ca": 8545,
      "agro": 8546,
      "##ins": 8547,
      "##ial,": 8548,
      "##entarii": 8549,
      "grame": 8550,
      "becali": 8551,
      "geam": 8552,
      "mis": 8553,
      "##uției": 8554,
      "##citate": 8555,
      "cerebr": 8556,
      "##{": 8557,
      "tratea": 8558,
      "##vici": 8559,
      "##gon": 8560,
      "miting": 8561,
      "clo": 8562,
      "5.000": 8563,
      "##erie": 8564,
      "##itivul": 8565,
      "##cite": 8566,
      "##ov,": 8567,
      "vase": 8568,
      "ru": 8569,
      "totale": 8570,
      "desen": 8571,
      "coinci": 8572,
      "merced": 8573,
      "vârstn": 8574,
      "tit": 8575,
      "##erei": 8576,
      "##if": 8577,
      "anotim": 8578,
      "colț": 8579,
      "bu": 8580,
      "##rare,": 8581,
      "fertil": 8582,
      "varsta": 8583,
      "##yn": 8584,
      "##hi,": 8585,
      "împute": 8586,
      "țărilo": 8587,
      "##ndarea": 8588,
      "##nator": 8589,
      "##asm": 8590,
      "păcăto": 8591,
      "neam": 8592,
      "„pre": 8593,
      "ramuri": 8594,
      "urmari": 8595,
      "##bert": 8596,
      "virtut": 8597,
      "##pate": 8598,
      "citiți": 8599,
      "##-uri,": 8600,
      "bronz": 8601,
      "urcă": 8602,
      "##piilor": 8603,
      "book": 8604,
      "##yl": 8605,
      "uşoară": 8606,
      "twitte": 8607,
      "aleagă": 8608,
      "(pro": 8609,
      "##rtat": 8610,
      "tare,": 8611,
      "##5)": 8612,
      "##smului,": 8613,
      "montar": 8614,
      "invidi": 8615,
      "##xt": 8616,
      "##iană": 8617,
      "##stică": 8618,
      "gestur": 8619,
      "dânsul": 8620,
      "cadă": 8621,
      "tremur": 8622,
      "lipses": 8623,
      "##dic": 8624,
      "##set": 8625,
      "cafene": 8626,
      "##hii": 8627,
      "danema": 8628,
      "prăbuș": 8629,
      "războa": 8630,
      "##nos": 8631,
      "trag": 8632,
      "nisip": 8633,
      "greșel": 8634,
      "##antă,": 8635,
      "stănes": 8636,
      "logo": 8637,
      "calciu": 8638,
      "chin": 8639,
      "pin": 8640,
      "„li": 8641,
      "masiv": 8642,
      "prăbuş": 8643,
      "##şu": 8644,
      "##riza": 8645,
      "aude": 8646,
      "zicea": 8647,
      "ambiți": 8648,
      "adever": 8649,
      "##ican": 8650,
      "##arile": 8651,
      "culina": 8652,
      "duh": 8653,
      "buzău": 8654,
      "##sor": 8655,
      "##83": 8656,
      "##icată,": 8657,
      "##aca": 8658,
      "debut": 8659,
      "deprin": 8660,
      "##nalitat": 8661,
      "##ene,": 8662,
      "cas": 8663,
      "cumula": 8664,
      "philip": 8665,
      "##ef": 8666,
      "oprea": 8667,
      "##e-ul": 8668,
      "isu": 8669,
      "regiza": 8670,
      "##terii": 8671,
      "##63": 8672,
      "epuiza": 8673,
      "##uca": 8674,
      "##jat": 8675,
      "prizon": 8676,
      "cunost": 8677,
      "##uf": 8678,
      "ctitor": 8679,
      "inchei": 8680,
      "cardur": 8681,
      "liberi": 8682,
      "16,": 8683,
      "3-4": 8684,
      "fiind,": 8685,
      "iubeşt": 8686,
      "interr": 8687,
      "\"la": 8688,
      "##nării": 8689,
      "milă": 8690,
      "##orii,": 8691,
      "setări": 8692,
      "(po": 8693,
      "cresti": 8694,
      "##umit": 8695,
      "ardei": 8696,
      "##cta": 8697,
      "sateli": 8698,
      "piețel": 8699,
      "muta": 8700,
      "afecti": 8701,
      "roşu": 8702,
      "brânză": 8703,
      "urât": 8704,
      "97": 8705,
      "testel": 8706,
      "##d.": 8707,
      "##ân": 8708,
      "învețe": 8709,
      "hor": 8710,
      "părulu": 8711,
      "##buţia": 8712,
      "moș": 8713,
      "rap": 8714,
      "ii-a": 8715,
      "##uin": 8716,
      "##xual": 8717,
      "sac": 8718,
      "virgil": 8719,
      "stefan": 8720,
      "dese": 8721,
      "##oe": 8722,
      "confun": 8723,
      "repriz": 8724,
      "##stin": 8725,
      "18,": 8726,
      "##șat": 8727,
      "nădejd": 8728,
      "împlet": 8729,
      "taxei": 8730,
      "căpăta": 8731,
      "văzu": 8732,
      "variaz": 8733,
      "gestul": 8734,
      "##logia": 8735,
      "##nțial": 8736,
      "hrană": 8737,
      "##ităţi": 8738,
      "ramas": 8739,
      "nascut": 8740,
      "visa": 8741,
      "rector": 8742,
      "bursa": 8743,
      "muzeu": 8744,
      "aplice": 8745,
      "ponta,": 8746,
      "ken": 8747,
      "112": 8748,
      "##76": 8749,
      "gradin": 8750,
      "##etari": 8751,
      "habar": 8752,
      "nordic": 8753,
      "##rantul": 8754,
      "\"i": 8755,
      "##udinea": 8756,
      "##86": 8757,
      "ştiam": 8758,
      "joci": 8759,
      "teleor": 8760,
      "roșie": 8761,
      "cablu": 8762,
      "luat-o": 8763,
      "tuburi": 8764,
      "##nul,": 8765,
      "negru,": 8766,
      "fitnes": 8767,
      "furt": 8768,
      "1-2": 8769,
      "aprofu": 8770,
      "moară": 8771,
      "##tibil": 8772,
      "may": 8773,
      "răul": 8774,
      "##les,": 8775,
      "șa": 8776,
      "##tatile": 8777,
      "stalin": 8778,
      "##oşi": 8779,
      "cle": 8780,
      "mil": 8781,
      "stii": 8782,
      "faţă,": 8783,
      "opus": 8784,
      "shi": 8785,
      "românu": 8786,
      "librăr": 8787,
      "vo": 8788,
      "elisab": 8789,
      "sustra": 8790,
      "\",": 8791,
      "şanse": 8792,
      "superf": 8793,
      "##tivele": 8794,
      "##iona": 8795,
      "coada": 8796,
      "etaj": 8797,
      "##rați": 8798,
      "venind": 8799,
      "2019": 8800,
      "##citatea": 8801,
      "##lări": 8802,
      "zborul": 8803,
      "##iile,": 8804,
      "iulia,": 8805,
      "precon": 8806,
      "monstr": 8807,
      "opune": 8808,
      "##nca": 8809,
      "biblie": 8810,
      "teren,": 8811,
      "avram": 8812,
      "inamic": 8813,
      "will": 8814,
      "##nei,": 8815,
      "clujul": 8816,
      "##6)": 8817,
      "trupei": 8818,
      "(3": 8819,
      "bucăți": 8820,
      "ruta": 8821,
      "##iuni,": 8822,
      "##-urilor": 8823,
      "##2.": 8824,
      "comun,": 8825,
      "##ute,": 8826,
      "##ianul": 8827,
      "delta": 8828,
      "plimbă": 8829,
      "nebun": 8830,
      "medite": 8831,
      "lat": 8832,
      "unelte": 8833,
      "nume,": 8834,
      "strugu": 8835,
      "##gre": 8836,
      "’": 8837,
      "17,": 8838,
      "recurg": 8839,
      "##tau": 8840,
      "##oniu": 8841,
      "predom": 8842,
      "neramb": 8843,
      "margar": 8844,
      "îndrea": 8845,
      "şo": 8846,
      "##bit": 8847,
      "absurd": 8848,
      "##i\"": 8849,
      "etc.,": 8850,
      "slăbic": 8851,
      "##-re": 8852,
      "##74": 8853,
      "soare,": 8854,
      "arătân": 8855,
      "##rică": 8856,
      "solar": 8857,
      "gb": 8858,
      "câr": 8859,
      "site,": 8860,
      "șe": 8861,
      "chemar": 8862,
      "##dal": 8863,
      "sărit": 8864,
      "##/s": 8865,
      "gigi": 8866,
      "uscate": 8867,
      "mon": 8868,
      "scoala": 8869,
      "##entari": 8870,
      "luaţi": 8871,
      "moda": 8872,
      "moise": 8873,
      "##vit": 8874,
      "petrea": 8875,
      "angela": 8876,
      "deserv": 8877,
      "##easca": 8878,
      "##dent": 8879,
      "oct,": 8880,
      "jan": 8881,
      "##ship": 8882,
      "cetăţi": 8883,
      "##opiatul": 8884,
      "iubitu": 8885,
      "pâna": 8886,
      "##ab": 8887,
      "repetă": 8888,
      "##caţi": 8889,
      "##cații": 8890,
      "dra": 8891,
      "80%": 8892,
      "##erizată": 8893,
      "argent": 8894,
      "cara": 8895,
      "umidit": 8896,
      "uşa": 8897,
      "aduna": 8898,
      "entita": 8899,
      "joc,": 8900,
      "primim": 8901,
      "(199": 8902,
      "patolo": 8903,
      "(17": 8904,
      "psihia": 8905,
      "miri": 8906,
      "fugă": 8907,
      "##dine": 8908,
      "însăşi": 8909,
      "frig": 8910,
      "##mic": 8911,
      "simula": 8912,
      "trezi": 8913,
      "multit": 8914,
      "displa": 8915,
      "îngheț": 8916,
      "##tm": 8917,
      "astero": 8918,
      "league": 8919,
      "fortif": 8920,
      "ionuț": 8921,
      "clopot": 8922,
      "v-ați": 8923,
      "pete": 8924,
      "cuza": 8925,
      "iarăşi": 8926,
      "##ley": 8927,
      "##egherea": 8928,
      "munţii": 8929,
      "vr": 8930,
      "manusc": 8931,
      "##til": 8932,
      "cardia": 8933,
      "##via": 8934,
      "##ose": 8935,
      "“re": 8936,
      "##cial": 8937,
      "##berg": 8938,
      "apelur": 8939,
      "##book": 8940,
      "pasă": 8941,
      "##69": 8942,
      "##inească": 8943,
      "„ma": 8944,
      "şoferu": 8945,
      "relief": 8946,
      "gât": 8947,
      "soldaț": 8948,
      "depună": 8949,
      "##entală": 8950,
      "ocupaț": 8951,
      "91": 8952,
      "##entă,": 8953,
      "treci": 8954,
      "##alizat": 8955,
      "decesu": 8956,
      "abordă": 8957,
      "sediu": 8958,
      "floren": 8959,
      "##ății,": 8960,
      "11.": 8961,
      "##ato": 8962,
      "##lent": 8963,
      "antiox": 8964,
      "odihne": 8965,
      "culmea": 8966,
      "aborde": 8967,
      "gimnas": 8968,
      "ferm": 8969,
      "sponta": 8970,
      "sticle": 8971,
      "vizat": 8972,
      "cuvine": 8973,
      "##ziunea": 8974,
      "##iar,": 8975,
      "sexdat": 8976,
      "##-in": 8977,
      "##67": 8978,
      "##ipanți": 8979,
      "artă,": 8980,
      "jazz": 8981,
      "steagu": 8982,
      "posta": 8983,
      "uneia": 8984,
      "##@bzi.ro": 8985,
      "##pol": 8986,
      "depun": 8987,
      "res": 8988,
      "##ete,": 8989,
      "ford": 8990,
      "##ctuali": 8991,
      "184": 8992,
      "decor": 8993,
      "casnic": 8994,
      "bru": 8995,
      "bloca": 8996,
      "##inant": 8997,
      "reuşi": 8998,
      "toalet": 8999,
      "##ilă,": 9000,
      "şoferi": 9001,
      "dol": 9002,
      "căutăr": 9003,
      "marcă": 9004,
      "##irilor": 9005,
      "mision": 9006,
      "##tist": 9007,
      "reţea": 9008,
      "nee": 9009,
      "dateaz": 9010,
      "aiba": 9011,
      "carti": 9012,
      "votare": 9013,
      "ong-ur": 9014,
      "mile": 9015,
      "dezava": 9016,
      "##mentare": 9017,
      "penis": 9018,
      "##hea": 9019,
      "încurc": 9020,
      "bizant": 9021,
      "vernis": 9022,
      "tudore": 9023,
      "dam": 9024,
      "##ain": 9025,
      "sarbat": 9026,
      "fronta": 9027,
      "„u": 9028,
      "adulţi": 9029,
      "##ientele": 9030,
      "mărunt": 9031,
      "##tina": 9032,
      "##lav": 9033,
      "##ursabil": 9034,
      "ruși": 9035,
      "##tație": 9036,
      "susten": 9037,
      "##ormare": 9038,
      "minut": 9039,
      "îngroz": 9040,
      "neîn": 9041,
      "###": 9042,
      "25%": 9043,
      "prințu": 9044,
      "##ст": 9045,
      "##uţia": 9046,
      "anaf": 9047,
      "dna,": 9048,
      "curier": 9049,
      "##д": 9050,
      "##du-i": 9051,
      "mamaia": 9052,
      "bill": 9053,
      "marato": 9054,
      "lovi": 9055,
      "romi": 9056,
      "vedeţi": 9057,
      "ut": 9058,
      "##afic": 9059,
      "liste": 9060,
      "slujbă": 9061,
      "solo": 9062,
      "evitat": 9063,
      "##oasa": 9064,
      "\"po": 9065,
      "bonus": 9066,
      "gras": 9067,
      "best": 9068,
      "##sch": 9069,
      "[...]": 9070,
      "icoana": 9071,
      "doriţi": 9072,
      "##lea,": 9073,
      "taxelo": 9074,
      "salvez": 9075,
      "nerăbd": 9076,
      "##ost": 9077,
      "##iției": 9078,
      "vinul": 9079,
      "rang": 9080,
      "ludovi": 9081,
      "st": 9082,
      "(ad": 9083,
      "mer": 9084,
      "##erabil": 9085,
      "defavo": 9086,
      "dvs.,": 9087,
      "macedo": 9088,
      "just": 9089,
      "carcas": 9090,
      "##lice": 9091,
      "mână,": 9092,
      "sn": 9093,
      "previn": 9094,
      "reiese": 9095,
      "împodo": 9096,
      "##cli": 9097,
      "numar": 9098,
      "stres": 9099,
      "##xului": 9100,
      "magic": 9101,
      "instin": 9102,
      "2002,": 9103,
      "##tivul": 9104,
      "funcia": 9105,
      "rețete": 9106,
      "curăţa": 9107,
      "răni": 9108,
      "sintag": 9109,
      "celula": 9110,
      "elicop": 9111,
      "culege": 9112,
      "domnii": 9113,
      "ciu": 9114,
      "anunţu": 9115,
      "##par": 9116,
      "dos": 9117,
      "bro": 9118,
      "##rati": 9119,
      "##iză": 9120,
      "semeni": 9121,
      "triumf": 9122,
      "gunoi": 9123,
      "greșea": 9124,
      "##-de": 9125,
      "##ort,": 9126,
      "necazu": 9127,
      "dis": 9128,
      "mix": 9129,
      "ferată": 9130,
      "ios": 9131,
      "##oși": 9132,
      "alb,": 9133,
      "pal": 9134,
      "##ăs": 9135,
      "mangal": 9136,
      "profet": 9137,
      "decent": 9138,
      "aducân": 9139,
      "reduc": 9140,
      "##hy": 9141,
      "pan": 9142,
      "##mus": 9143,
      "hrana": 9144,
      "nei": 9145,
      "trebur": 9146,
      "##ţi-vă": 9147,
      "gr": 9148,
      "##-0": 9149,
      "##icească": 9150,
      "enescu": 9151,
      "arăt": 9152,
      "##m)": 9153,
      "[1": 9154,
      "##ood": 9155,
      "dragom": 9156,
      "fle": 9157,
      "oaspeţ": 9158,
      "##zațiile": 9159,
      "04": 9160,
      "(0": 9161,
      "stângă": 9162,
      "a-ți": 9163,
      "##l.": 9164,
      "zu": 9165,
      "##nto": 9166,
      "zonă,": 9167,
      "##orarea": 9168,
      "##litățil": 9169,
      "camp": 9170,
      "##uând": 9171,
      "##sticul": 9172,
      "um": 9173,
      "îndeos": 9174,
      "93": 9175,
      "##osi": 9176,
      "1999": 9177,
      "izvoar": 9178,
      "cifre": 9179,
      "##7)": 9180,
      "hiper": 9181,
      "intreg": 9182,
      "08": 9183,
      "review": 9184,
      "##ivei": 9185,
      "richar": 9186,
      "otoman": 9187,
      "laudă": 9188,
      "trauma": 9189,
      "##tății,": 9190,
      "băl": 9191,
      "on-lin": 9192,
      "##ionate": 9193,
      "##zin": 9194,
      "##tură,": 9195,
      "##tanță": 9196,
      "zen": 9197,
      "##ăţii,": 9198,
      "curios": 9199,
      "dezbăt": 9200,
      "##ans": 9201,
      "ante": 9202,
      "nervos": 9203,
      "apelat": 9204,
      "##sz": 9205,
      "siteur": 9206,
      "##”)": 9207,
      "umbra": 9208,
      "inde": 9209,
      "cauta": 9210,
      "privim": 9211,
      "asi": 9212,
      "##e\",": 9213,
      "glasul": 9214,
      "expus": 9215,
      "(t": 9216,
      "##rante": 9217,
      "noteaz": 9218,
      "bo": 9219,
      "cioc": 9220,
      "atracț": 9221,
      "alegăt": 9222,
      "abstra": 9223,
      "##ira": 9224,
      "ţină": 9225,
      "##ţional": 9226,
      "glume": 9227,
      "(d": 9228,
      "mos": 9229,
      "patul": 9230,
      "verita": 9231,
      "##buc": 9232,
      "condim": 9233,
      "##vat": 9234,
      "vrăjit": 9235,
      "13:": 9236,
      "ur": 9237,
      "câți": 9238,
      "let": 9239,
      "bec": 9240,
      "##rn": 9241,
      "intrea": 9242,
      "##gar": 9243,
      "grosim": 9244,
      "##ias": 9245,
      "revină": 9246,
      "que": 9247,
      "preuni": 9248,
      "pozele": 9249,
      "cho": 9250,
      "izvor": 9251,
      "##oba": 9252,
      "(ar": 9253,
      "nuanțe": 9254,
      "coaliț": 9255,
      "ventil": 9256,
      "moare": 9257,
      "##uim": 9258,
      "dietă": 9259,
      "oscar": 9260,
      "action": 9261,
      "graţie": 9262,
      "##etăți": 9263,
      "tenul": 9264,
      "##zator": 9265,
      "...cit": 9266,
      "##asele": 9267,
      "mineri": 9268,
      "nu-ți": 9269,
      "##manţă": 9270,
      "##onală": 9271,
      "##rio": 9272,
      "##lescu": 9273,
      "##kt": 9274,
      "silviu": 9275,
      "cuiva": 9276,
      "pos": 9277,
      "tăiere": 9278,
      "##ț,": 9279,
      "##ențiale": 9280,
      "rat": 9281,
      "dorest": 9282,
      "mobila": 9283,
      "bis": 9284,
      "partaj": 9285,
      "##timentu": 9286,
      "pl-x": 9287,
      "##cire": 9288,
      "(r": 9289,
      "beat": 9290,
      "(ra": 9291,
      "##ogie,": 9292,
      "mara": 9293,
      "cerem": 9294,
      "##б": 9295,
      "##țu": 9296,
      "doare": 9297,
      "##tuția": 9298,
      "##,5": 9299,
      "(16": 9300,
      "amânat": 9301,
      "2,5": 9302,
      "##ovi": 9303,
      "183": 9304,
      "sti": 9305,
      "##ie:": 9306,
      "##oca": 9307,
      "##rp": 9308,
      "decurg": 9309,
      "tracto": 9310,
      "09": 9311,
      "scump": 9312,
      "##ax": 9313,
      "##ciari": 9314,
      "##risme": 9315,
      "##ance": 9316,
      "salon": 9317,
      "parti": 9318,
      "##roc": 9319,
      "##ede": 9320,
      "rare": 9321,
      "##amentel": 9322,
      "lim": 9323,
      "##ţul": 9324,
      "jurisp": 9325,
      "##200": 9326,
      "iar,": 9327,
      "94": 9328,
      "balcon": 9329,
      "bagaje": 9330,
      "##zie,": 9331,
      "##eș": 9332,
      "atragă": 9333,
      "curajo": 9334,
      "2003,": 9335,
      "credeț": 9336,
      "dac": 9337,
      "\"in": 9338,
      "##ndumul": 9339,
      "##82": 9340,
      "însăși": 9341,
      "(ba": 9342,
      "înzest": 9343,
      "recepţ": 9344,
      "înot": 9345,
      "apăra": 9346,
      "sa-si": 9347,
      "bihor": 9348,
      "(7)": 9349,
[...]
